{
  "version": "1.0",
  "truncation": null,
  "padding": null,
  "added_tokens": [
    {
      "id": 0,
      "content": "<pad>",
      "single_word": false,
      "lstrip": false,
      "rstrip": false,
      "normalized": false,
      "special": true
    },
    {
      "id": 1,
      "content": "<bos>",
      "single_word": false,
      "lstrip": false,
      "rstrip": false,
      "normalized": false,
      "special": true
    },
    {
      "id": 2,
      "content": "<eos>",
      "single_word": false,
      "lstrip": false,
      "rstrip": false,
      "normalized": false,
      "special": true
    },
    {
      "id": 3,
      "content": "<unk>",
      "single_word": false,
      "lstrip": false,
      "rstrip": false,
      "normalized": false,
      "special": true
    }
  ],
  "normalizer": null,
  "pre_tokenizer": {
    "type": "ByteLevel",
    "add_prefix_space": false,
    "trim_offsets": true,
    "use_regex": true
  },
  "post_processor": {
    "type": "TemplateProcessing",
    "single": [
      {
        "SpecialToken": {
          "id": "<bos>",
          "type_id": 0
        }
      },
      {
        "Sequence": {
          "id": "A",
          "type_id": 0
        }
      },
      {
        "SpecialToken": {
          "id": "<eos>",
          "type_id": 0
        }
      }
    ],
    "pair": [
      {
        "SpecialToken": {
          "id": "<bos>",
          "type_id": 0
        }
      },
      {
        "Sequence": {
          "id": "A",
          "type_id": 0
        }
      },
      {
        "SpecialToken": {
          "id": "<eos>",
          "type_id": 0
        }
      },
      {
        "Sequence": {
          "id": "B",
          "type_id": 1
        }
      },
      {
        "SpecialToken": {
          "id": "<eos>",
          "type_id": 1
        }
      }
    ],
    "special_tokens": {
      "<bos>": {
        "id": "<bos>",
        "ids": [
          1
        ],
        "tokens": [
          "<bos>"
        ]
      },
      "<eos>": {
        "id": "<eos>",
        "ids": [
          2
        ],
        "tokens": [
          "<eos>"
        ]
      }
    }
  },
  "decoder": {
    "type": "ByteLevel",
    "add_prefix_space": true,
    "trim_offsets": true,
    "use_regex": true
  },
  "model": {
    "type": "BPE",
    "dropout": null,
    "unk_token": "<unk>",
    "continuing_subword_prefix": null,
    "end_of_word_suffix": null,
    "fuse_unk": false,
    "byte_fallback": false,
    "ignore_merges": false,
    "vocab": {
      "<pad>": 0,
      "<bos>": 1,
      "<eos>": 2,
      "<unk>": 3,
      "!": 4,
      "\"": 5,
      "#": 6,
      "$": 7,
      "%": 8,
      "&": 9,
      "'": 10,
      "(": 11,
      ")": 12,
      "*": 13,
      "+": 14,
      ",": 15,
      "-": 16,
      ".": 17,
      "/": 18,
      "0": 19,
      "1": 20,
      "2": 21,
      "3": 22,
      "4": 23,
      "5": 24,
      "6": 25,
      "7": 26,
      "8": 27,
      "9": 28,
      ":": 29,
      ";": 30,
      "<": 31,
      "=": 32,
      ">": 33,
      "?": 34,
      "@": 35,
      "A": 36,
      "B": 37,
      "C": 38,
      "D": 39,
      "E": 40,
      "F": 41,
      "G": 42,
      "H": 43,
      "I": 44,
      "J": 45,
      "K": 46,
      "L": 47,
      "M": 48,
      "N": 49,
      "O": 50,
      "P": 51,
      "Q": 52,
      "R": 53,
      "S": 54,
      "T": 55,
      "U": 56,
      "V": 57,
      "W": 58,
      "X": 59,
      "Y": 60,
      "Z": 61,
      "[": 62,
      "\\": 63,
      "]": 64,
      "^": 65,
      "_": 66,
      "`": 67,
      "a": 68,
      "b": 69,
      "c": 70,
      "d": 71,
      "e": 72,
      "f": 73,
      "g": 74,
      "h": 75,
      "i": 76,
      "j": 77,
      "k": 78,
      "l": 79,
      "m": 80,
      "n": 81,
      "o": 82,
      "p": 83,
      "q": 84,
      "r": 85,
      "s": 86,
      "t": 87,
      "u": 88,
      "v": 89,
      "w": 90,
      "x": 91,
      "y": 92,
      "z": 93,
      "{": 94,
      "|": 95,
      "}": 96,
      "~": 97,
      "¡": 98,
      "¢": 99,
      "£": 100,
      "¤": 101,
      "¥": 102,
      "¦": 103,
      "§": 104,
      "¨": 105,
      "©": 106,
      "ª": 107,
      "«": 108,
      "¬": 109,
      "®": 110,
      "¯": 111,
      "°": 112,
      "±": 113,
      "²": 114,
      "³": 115,
      "´": 116,
      "µ": 117,
      "¶": 118,
      "·": 119,
      "¸": 120,
      "¹": 121,
      "º": 122,
      "»": 123,
      "¼": 124,
      "½": 125,
      "¾": 126,
      "¿": 127,
      "À": 128,
      "Á": 129,
      "Â": 130,
      "Ã": 131,
      "Ä": 132,
      "Å": 133,
      "Æ": 134,
      "Ç": 135,
      "È": 136,
      "É": 137,
      "Ê": 138,
      "Ë": 139,
      "Ì": 140,
      "Í": 141,
      "Î": 142,
      "Ï": 143,
      "Ð": 144,
      "Ñ": 145,
      "Ò": 146,
      "Ó": 147,
      "Ô": 148,
      "Õ": 149,
      "Ö": 150,
      "×": 151,
      "Ø": 152,
      "Ù": 153,
      "Ú": 154,
      "Û": 155,
      "Ü": 156,
      "Ý": 157,
      "Þ": 158,
      "ß": 159,
      "à": 160,
      "á": 161,
      "â": 162,
      "ã": 163,
      "ä": 164,
      "å": 165,
      "æ": 166,
      "ç": 167,
      "è": 168,
      "é": 169,
      "ê": 170,
      "ë": 171,
      "ì": 172,
      "í": 173,
      "î": 174,
      "ï": 175,
      "ð": 176,
      "ñ": 177,
      "ò": 178,
      "ó": 179,
      "ô": 180,
      "õ": 181,
      "ö": 182,
      "÷": 183,
      "ø": 184,
      "ù": 185,
      "ú": 186,
      "û": 187,
      "ü": 188,
      "ý": 189,
      "þ": 190,
      "ÿ": 191,
      "Ā": 192,
      "ā": 193,
      "Ă": 194,
      "ă": 195,
      "Ą": 196,
      "ą": 197,
      "Ć": 198,
      "ć": 199,
      "Ĉ": 200,
      "ĉ": 201,
      "Ċ": 202,
      "ċ": 203,
      "Č": 204,
      "č": 205,
      "Ď": 206,
      "ď": 207,
      "Đ": 208,
      "đ": 209,
      "Ē": 210,
      "ē": 211,
      "Ĕ": 212,
      "ĕ": 213,
      "Ė": 214,
      "ė": 215,
      "Ę": 216,
      "ę": 217,
      "Ě": 218,
      "ě": 219,
      "Ĝ": 220,
      "ĝ": 221,
      "Ğ": 222,
      "ğ": 223,
      "Ġ": 224,
      "ġ": 225,
      "Ģ": 226,
      "ģ": 227,
      "Ĥ": 228,
      "ĥ": 229,
      "Ħ": 230,
      "ħ": 231,
      "Ĩ": 232,
      "ĩ": 233,
      "Ī": 234,
      "ī": 235,
      "Ĭ": 236,
      "ĭ": 237,
      "Į": 238,
      "į": 239,
      "İ": 240,
      "ı": 241,
      "Ĳ": 242,
      "ĳ": 243,
      "Ĵ": 244,
      "ĵ": 245,
      "Ķ": 246,
      "ķ": 247,
      "ĸ": 248,
      "Ĺ": 249,
      "ĺ": 250,
      "Ļ": 251,
      "ļ": 252,
      "Ľ": 253,
      "ľ": 254,
      "Ŀ": 255,
      "ŀ": 256,
      "Ł": 257,
      "ł": 258,
      "Ń": 259,
      "Ġt": 260,
      "Ġa": 261,
      "in": 262,
      "he": 263,
      "re": 264,
      "on": 265,
      "Ġthe": 266,
      "er": 267,
      "Ġs": 268,
      "at": 269,
      "Ġo": 270,
      "en": 271,
      "Ġc": 272,
      "es": 273,
      "nd": 274,
      "Ġw": 275,
      "it": 276,
      "ing": 277,
      "is": 278,
      "or": 279,
      "al": 280,
      "Ġp": 281,
      "an": 282,
      "Ġf": 283,
      "ou": 284,
      "Ġb": 285,
      "ed": 286,
      "Ġof": 287,
      "Ġin": 288,
      "ar": 289,
      "Ġm": 290,
      "Ġand": 291,
      "ic": 292,
      "ion": 293,
      "Ġto": 294,
      "Ġd": 295,
      "le": 296,
      "ro": 297,
      "ent": 298,
      "as": 299,
      "Ġh": 300,
      "Ġe": 301,
      "ct": 302,
      "Ġth": 303,
      "Ġre": 304,
      "om": 305,
      "il": 306,
      "ve": 307,
      "Ġl": 308,
      "st": 309,
      "ĠT": 310,
      "Ġn": 311,
      "et": 312,
      "ly": 313,
      "ation": 314,
      "Ġg": 315,
      "se": 316,
      "Ġis": 317,
      "ol": 318,
      "im": 319,
      "id": 320,
      "ce": 321,
      "ĠA": 322,
      "ra": 323,
      "ow": 324,
      "Ġbe": 325,
      "ur": 326,
      "ut": 327,
      "ig": 328,
      "Ġy": 329,
      "ch": 330,
      "âĢ": 331,
      "ĠI": 332,
      "Ġu": 333,
      "ot": 334,
      "Ġst": 335,
      "ĠS": 336,
      "Ġfor": 337,
      "ver": 338,
      "Ġon": 339,
      "Ġyou": 340,
      "ul": 341,
      "ir": 342,
      "ĠC": 343,
      "ay": 344,
      "Ġthat": 345,
      "ith": 346,
      "el": 347,
      "Ġcon": 348,
      "am": 349,
      "Ġas": 350,
      "ĠThe": 351,
      "Ġpro": 352,
      "if": 353,
      "Ġwith": 354,
      "her": 355,
      "Ġan": 356,
      "Ġor": 357,
      "ad": 358,
      "ess": 359,
      "ter": 360,
      "Ġwh": 361,
      "Ġit": 362,
      "Ġare": 363,
      "Ġal": 364,
      "ment": 365,
      "Ġex": 366,
      "od": 367,
      "ies": 368,
      "ge": 369,
      "ĠM": 370,
      "ers": 371,
      "ate": 372,
      "ĠP": 373,
      "ist": 374,
      "Ġcom": 375,
      "ĠB": 376,
      "ect": 377,
      "Ġde": 378,
      "ab": 379,
      "ĠW": 380,
      "us": 381,
      "th": 382,
      "ity": 383,
      "Ġhe": 384,
      "op": 385,
      "res": 386,
      "Ġv": 387,
      "Ġ(": 388,
      "Ġsu": 389,
      "ive": 390,
      "ill": 391,
      "qu": 392,
      "iv": 393,
      "ke": 394,
      "Ġwe": 395,
      "ore": 396,
      "Ġ1": 397,
      "em": 398,
      "ac": 399,
      "ĠH": 400,
      "ain": 401,
      "est": 402,
      "pp": 403,
      "ant": 404,
      "and": 405,
      "igh": 406,
      "ĠF": 407,
      "um": 408,
      "os": 409,
      "ĠE": 410,
      "Ġcan": 411,
      "ĠD": 412,
      "ial": 413,
      "ld": 414,
      "nt": 415,
      "Ġch": 416,
      "rom": 417,
      "oc": 418,
      "ud": 419,
      "ort": 420,
      "Ġby": 421,
      "Ġen": 422,
      "ical": 423,
      "âĢĻ": 424,
      "Ġle": 425,
      "ĠR": 426,
      "ure": 427,
      "Ġha": 428,
      "Ġne": 429,
      "Ġr": 430,
      "un": 431,
      "Ġse": 432,
      "Ġat": 433,
      "Ġ-": 434,
      "Ġfrom": 435,
      "art": 436,
      "ions": 437,
      "og": 438,
      "rou": 439,
      "ĠL": 440,
      "ĠâĢ": 441,
      "Ġsh": 442,
      "ri": 443,
      "Ġyour": 444,
      "pl": 445,
      "Ġ2": 446,
      "ight": 447,
      "ap": 448,
      "Ġwor": 449,
      "ĠN": 450,
      "Ġthis": 451,
      "--": 452,
      "Ġab": 453,
      "ĠG": 454,
      "Ġim": 455,
      "Ġsp": 456,
      "gh": 457,
      "out": 458,
      "Ġwas": 459,
      "all": 460,
      "ag": 461,
      "ere": 462,
      "ĠO": 463,
      "Ġint": 464,
      "iz": 465,
      "Ġhave": 466,
      "act": 467,
      "our": 468,
      "Ġpl": 469,
      "ine": 470,
      "Ġus": 471,
      "ome": 472,
      "du": 473,
      "Ġnot": 474,
      "Ġtheir": 475,
      "ĠIn": 476,
      "ĠTh": 477,
      "pt": 478,
      "are": 479,
      "per": 480,
      "ard": 481,
      "age": 482,
      "ous": 483,
      "ther": 484,
      "ations": 485,
      "ost": 486,
      "ich": 487,
      "ff": 488,
      "ated": 489,
      "ide": 490,
      "ans": 491,
      "Ġcont": 492,
      "ust": 493,
      "Ġad": 494,
      "Ġk": 495,
      "Ġcomp": 496,
      "ell": 497,
      "ak": 498,
      "Ġwhe": 499,
      "ould": 500,
      "ip": 501,
      "end": 502,
      "ult": 503,
      "Ġthey": 504,
      "'s": 505,
      "ec": 506,
      "Ġdis": 507,
      "ast": 508,
      "Ġinc": 509,
      "ance": 510,
      "ib": 511,
      "ru": 512,
      "Ġres": 513,
      "Ġwill": 514,
      "cc": 515,
      "Ġall": 516,
      "ual": 517,
      "vel": 518,
      "ong": 519,
      "ĠU": 520,
      "orm": 521,
      "ear": 522,
      "00": 523,
      "able": 524,
      "Ġwhich": 525,
      "Ġme": 526,
      "ks": 527,
      "ence": 528,
      "ary": 529,
      "ep": 530,
      "Ġimp": 531,
      "ie": 532,
      "ood": 533,
      "ind": 534,
      "reat": 535,
      "ents": 536,
      "Ġte": 537,
      "Ġman": 538,
      "Ġcl": 539,
      "ign": 540,
      "Ġmore": 541,
      "Ġdo": 542,
      "ire": 543,
      "Ġj": 544,
      "ach": 545,
      "ia": 546,
      "ĠJ": 547,
      "ry": 548,
      "so": 549,
      "Ġun": 550,
      "ike": 551,
      "Ġother": 552,
      "Ġhas": 553,
      "Ġabout": 554,
      "ction": 555,
      "oo": 556,
      "ces": 557,
      "ress": 558,
      "ass": 559,
      "ition": 560,
      "Ġar": 561,
      "Ġapp": 562,
      "av": 563,
      "ater": 564,
      "ime": 565,
      "Ġper": 566,
      "ake": 567,
      "very": 568,
      "Ġbut": 569,
      "ild": 570,
      "ĠThis": 571,
      "Ġalso": 572,
      "rit": 573,
      "Ġout": 574,
      "ice": 575,
      "Ġso": 576,
      "nder": 577,
      "ory": 578,
      "one": 579,
      "ors": 580,
      "Ġev": 581,
      "ĠIt": 582,
      "ile": 583,
      "Ġpre": 584,
      "Ġpart": 585,
      "Ġthem": 586,
      "Ġone": 587,
      "Ġcomm": 588,
      "Ġstud": 589,
      "ens": 590,
      "ĠSt": 591,
      "now": 592,
      "ace": 593,
      "Ġsy": 594,
      "ue": 595,
      "ase": 596,
      "form": 597,
      "..": 598,
      "iff": 599,
      "au": 600,
      "Ġlike": 601,
      "Ġthese": 602,
      "Ġinto": 603,
      "Ġqu": 604,
      "ings": 605,
      "rough": 606,
      "Ġfe": 607,
      "Ġhow": 608,
      "ci": 609,
      "ack": 610,
      "ose": 611,
      "Ġpe": 612,
      "olog": 613,
      "ities": 614,
      "ĠâĢľ": 615,
      "âĢĿ": 616,
      "----": 617,
      "ays": 618,
      "ber": 619,
      "ric": 620,
      "Ġtra": 621,
      "Ġup": 622,
      "ord": 623,
      "ang": 624,
      "low": 625,
      "Ġem": 626,
      "ount": 627,
      "ree": 628,
      "ish": 629,
      "ating": 630,
      "Ġwere": 631,
      "Ġour": 632,
      "king": 633,
      "ound": 634,
      "Ġro": 635,
      "Ġdiff": 636,
      "Ġwho": 637,
      "ĠY": 638,
      "Ġbec": 639,
      "ific": 640,
      "Ġunder": 641,
      "Ġbet": 642,
      "Ġhel": 643,
      "Ġsome": 644,
      "ments": 645,
      "Ġtr": 646,
      "Ġwhen": 647,
      "Ġits": 648,
      "ame": 649,
      "ĠK": 650,
      "ite": 651,
      "Ġthere": 652,
      "Ġtime": 653,
      "Ġmay": 654,
      "Ġhelp": 655,
      "ĠCh": 656,
      "les": 657,
      "Ġ3": 658,
      "ople": 659,
      "Ġrec": 660,
      "ons": 661,
      "Ġcons": 662,
      "ning": 663,
      "ph": 664,
      "ub": 665,
      "Ġcol": 666,
      "ough": 667,
      "ail": 668,
      "Ġrel": 669,
      "ates": 670,
      "Ġ\"": 671,
      "Ġknow": 672,
      "we": 673,
      "Ġover": 674,
      "ally": 675,
      "ne": 676,
      "Ġdes": 677,
      "ious": 678,
      ").": 679,
      "lect": 680,
      "Ġact": 681,
      "ĠV": 682,
      "lud": 683,
      "ond": 684,
      "Ġsuch": 685,
      "Ġhis": 686,
      "ms": 687,
      "Ġthan": 688,
      "ys": 689,
      "ĠWh": 690,
      "Ġag": 691,
      "erv": 692,
      "alth": 693,
      "Ġind": 694,
      "Ġgo": 695,
      "ll": 696,
      "ts": 697,
      "Ġthrough": 698,
      "Ġacc": 699,
      "ffect": 700,
      "Ġpeople": 701,
      "ful": 702,
      "round": 703,
      "Ġra": 704,
      "ple": 705,
      "tern": 706,
      "uring": 707,
      "Ġuse": 708,
      "Ġ20": 709,
      "Ġwhat": 710,
      "ular": 711,
      "vers": 712,
      "ian": 713,
      "Ġam": 714,
      "cess": 715,
      "ics": 716,
      "ative": 717,
      "ove": 718,
      "Ġneed": 719,
      "yp": 720,
      "row": 721,
      "ob": 722,
      "stem": 723,
      "ject": 724,
      "velop": 725,
      "Ġdiffere": 726,
      "te": 727,
      "ures": 728,
      "ren": 729,
      "Ġnew": 730,
      "ility": 731,
      "Ġinclud": 732,
      "Ġ19": 733,
      "Ġbeen": 734,
      "Ġif": 735,
      "ause": 736,
      "Ġyear": 737,
      "Ġany": 738,
      "ract": 739,
      "red": 740,
      "lic": 741,
      "Ġpr": 742,
      "Ġrep": 743,
      "eth": 744,
      "ĠAs": 745,
      "Ġprov": 746,
      "ov": 747,
      "irst": 748,
      "Ġinv": 749,
      "Ġspec": 750,
      "ĠâĢĵ": 751,
      "ced": 752,
      "Ġgen": 753,
      "Ġbl": 754,
      "Ġwork": 755,
      "Ġreg": 756,
      "Ġtw": 757,
      "Ġsa": 758,
      "Ġass": 759,
      "Ġph": 760,
      "ook": 761,
      "Ġoff": 762,
      "ise": 763,
      "__": 764,
      "rib": 765,
      "Ġmost": 766,
      "Ġac": 767,
      "ting": 768,
      "pect": 769,
      "Ġlear": 770,
      "ark": 771,
      "ween": 772,
      "Ġsc": 773,
      "Ġdi": 774,
      "Ġprodu": 775,
      "Ġdevelop": 776,
      "chn": 777,
      "tain": 778,
      "oth": 779,
      "als": 780,
      "Ġco": 781,
      "Ġused": 782,
      "Ġsystem": 783,
      "Ġmany": 784,
      "ational": 785,
      "ower": 786,
      "Ġbetween": 787,
      "Ġexper": 788,
      "Ġadd": 789,
      "hen": 790,
      "mer": 791,
      "Ġtrans": 792,
      "ten": 793,
      "Ġrem": 794,
      "Ġwould": 795,
      "hed": 796,
      "stand": 797,
      "Ġdec": 798,
      "Ġpos": 799,
      "Ġhealth": 800,
      "Ġpers": 801,
      "ife": 802,
      "Ġexam": 803,
      "Ġob": 804,
      "ath": 805,
      "Ġexpl": 806,
      "Ġwhere": 807,
      "Ġsur": 808,
      "ef": 809,
      "Ġpo": 810,
      "ĠHow": 811,
      "uc": 812,
      "erg": 813,
      "ange": 814,
      "ased": 815,
      "ible": 816,
      "Ġworld": 817,
      "),": 818,
      "Ġno": 819,
      "Ġinst": 820,
      "sel": 821,
      "Ġvar": 822,
      "Ġinf": 823,
      "Ġdisc": 824,
      "Ġhad": 825,
      "Ġsupp": 826,
      "Ġinter": 827,
      "its": 828,
      "Ġ4": 829,
      "xt": 830,
      "fter": 831,
      "ness": 832,
      "Ġatt": 833,
      "Ġimport": 834,
      "Ġmy": 835,
      "Ġfirst": 836,
      "hes": 837,
      "ential": 838,
      "aking": 839,
      "Ġtwo": 840,
      "Ġdifferent": 841,
      "old": 842,
      "Ġchild": 843,
      "Ġsign": 844,
      "erm": 845,
      "cy": 846,
      "wn": 847,
      "Ġsoc": 848,
      "Ġwell": 849,
      "Ġ*": 850,
      "Ġonly": 851,
      "Ġsm": 852,
      "Ġevery": 853,
      "rop": 854,
      "Ġess": 855,
      "own": 856,
      "ology": 857,
      "int": 858,
      "ural": 859,
      "ily": 860,
      "ever": 861,
      "Ġmod": 862,
      "ict": 863,
      "gan": 864,
      "Ġsub": 865,
      "arch": 866,
      "oy": 867,
      "Ġcommun": 868,
      "Ġtechn": 869,
      "ives": 870,
      "ĠUn": 871,
      "ines": 872,
      "fore": 873,
      "Ġcould": 874,
      "get": 875,
      "iet": 876,
      "ues": 877,
      "Ġ5": 878,
      "ble": 879,
      "ool": 880,
      "Ġhigh": 881,
      "ature": 882,
      "Ġsim": 883,
      "ram": 884,
      "Ġtyp": 885,
      "ution": 886,
      "Ġins": 887,
      "cept": 888,
      "Ġpres": 889,
      "ism": 890,
      "ng": 891,
      "ĠFor": 892,
      "ants": 893,
      "Ġmed": 894,
      "Ġfl": 895,
      "Ġget": 896,
      "Ġshould": 897,
      "Ġexp": 898,
      "ĠWe": 899,
      "Ġmake": 900,
      "ade": 901,
      "Ġbu": 902,
      "Ġjust": 903,
      "Ġwater": 904,
      "vent": 905,
      "Ġform": 906,
      "hip": 907,
      "iqu": 908,
      "Ġke": 909,
      "Ġcre": 910,
      "iss": 911,
      "ew": 912,
      "Ġref": 913,
      "Ġsee": 914,
      "Ġher": 915,
      "ident": 916,
      "ices": 917,
      "Ġpol": 918,
      "Ġeffect": 919,
      "Ġhum": 920,
      "Ġstr": 921,
      "ĠHe": 922,
      "ists": 923,
      "Ġeven": 924,
      "ied": 925,
      "ivid": 926,
      "ink": 927,
      "ata": 928,
      "Ġfol": 929,
      "ruct": 930,
      "Ġwrit": 931,
      "led": 932,
      "Ġunderstand": 933,
      "ered": 934,
      "Ġart": 935,
      "ron": 936,
      "Ġsk": 937,
      "Ġprocess": 938,
      "Ġway": 939,
      "ft": 940,
      "ically": 941,
      "Ġrese": 942,
      "ros": 943,
      "Ġear": 944,
      "Ġwhile": 945,
      "Ġ201": 946,
      "iew": 947,
      "ick": 948,
      "Ġnum": 949,
      "Ġed": 950,
      "chool": 951,
      "uch": 952,
      "Ġduring": 953,
      "ward": 954,
      "Ġeach": 955,
      "--------": 956,
      "ins": 957,
      "ĠAl": 958,
      "Ġval": 959,
      "eg": 960,
      "ize": 961,
      "arm": 962,
      "Ġinform": 963,
      "Ġdet": 964,
      "Ġlife": 965,
      "iron": 966,
      "Ġpartic": 967,
      "Ġpat": 968,
      "ages": 969,
      "cer": 970,
      "Ġread": 971,
      "ĠAn": 972,
      "other": 973,
      "ĠIf": 974,
      "Ġcar": 975,
      "ĠYou": 976,
      "Ġent": 977,
      "Ġincre": 978,
      "Ġusing": 979,
      "Ġgener": 980,
      "Ġbecause": 981,
      "Ġrequ": 982,
      "aw": 983,
      "ized": 984,
      "Ġcomple": 985,
      "Ġthose": 986,
      "Ġgra": 987,
      "Ġlead": 988,
      "Ġcount": 989,
      "Ġlong": 990,
      "Ġcall": 991,
      "ĠCon": 992,
      "Ġperson": 993,
      "Ġyears": 994,
      "Ġbeing": 995,
      "Ġfact": 996,
      "Ġset": 997,
      "Ġfun": 998,
      "Ġfam": 999,
      "Ġexperi": 1000,
      "Ġcent": 1001,
      "ality": 1002,
      "ds": 1003,
      "con": 1004,
      "Ġstudents": 1005,
      "Ġhist": 1006,
      "Ġfollow": 1007,
      "Ġimportant": 1008,
      "ually": 1009,
      "urn": 1010,
      "ps": 1011,
      "ited": 1012,
      "Ġcur": 1013,
      "Ġdep": 1014,
      "Ġthen": 1015,
      "ĠThey": 1016,
      "ection": 1017,
      "Ġgrow": 1018,
      "Ġfind": 1019,
      "Ġmain": 1020,
      "Ġgl": 1021,
      "Ġdist": 1022,
      "Ġprog": 1023,
      "ĠCom": 1024,
      "Ġloc": 1025,
      "Ġwithin": 1026,
      "Ġright": 1027,
      "Ġext": 1028,
      "Ġafter": 1029,
      "ving": 1030,
      "dition": 1031,
      "Ġshe": 1032,
      "Ġaround": 1033,
      "ĠWhat": 1034,
      "Ġaut": 1035,
      "Ġfound": 1036,
      "ĠThese": 1037,
      "Ġresp": 1038,
      "meric": 1039,
      "ody": 1040,
      "viron": 1041,
      "eng": 1042,
      "Ġlar": 1043,
      "imes": 1044,
      "ases": 1045,
      "Ġgreat": 1046,
      "cl": 1047,
      "ands": 1048,
      "Ġsol": 1049,
      "ividual": 1050,
      "Ġown": 1051,
      "ĠPro": 1052,
      "ient": 1053,
      "'t": 1054,
      "Ġdef": 1055,
      "Ġsom": 1056,
      "Ġdoes": 1057,
      "Ġfeel": 1058,
      "Ġpract": 1059,
      "Ġresult": 1060,
      "Ġboth": 1061,
      "ved": 1062,
      "Ġdata": 1063,
      "ves": 1064,
      "Ġpower": 1065,
      "ining": 1066,
      "Ġsec": 1067,
      "ork": 1068,
      "Ġback": 1069,
      "gg": 1070,
      "Ġlevel": 1071,
      "Ġmon": 1072,
      "Ġindividual": 1073,
      "ĠTo": 1074,
      "Ġlit": 1075,
      "Ġchar": 1076,
      "Ġcare": 1077,
      "Ġclass": 1078,
      "Ġstudy": 1079,
      "Ġvery": 1080,
      "Ġpop": 1081,
      "ering": 1082,
      "ĠInd": 1083,
      "ather": 1084,
      "Ġbr": 1085,
      "ĠThere": 1086,
      "Ġ6": 1087,
      "ĠAmeric": 1088,
      "ck": 1089,
      "Ġcult": 1090,
      "akes": 1091,
      "Ġav": 1092,
      "Ġdesign": 1093,
      "Ġche": 1094,
      "Ġbefore": 1095,
      "Ġoften": 1096,
      "ional": 1097,
      "Ġfood": 1098,
      "Ġmuch": 1099,
      "cing": 1100,
      "io": 1101,
      "uss": 1102,
      "Ġinformation": 1103,
      "ted": 1104,
      "Ġmight": 1105,
      "Ġmade": 1106,
      "Ġmem": 1107,
      "ets": 1108,
      "Ġprovid": 1109,
      "ital": 1110,
      "ĠEx": 1111,
      "Ġconsid": 1112,
      "cial": 1113,
      "Ġgood": 1114,
      "Ġ200": 1115,
      "Ġgrou": 1116,
      "Ġstart": 1117,
      "Ġallow": 1118,
      "ĠRe": 1119,
      "Ġlearn": 1120,
      "ĠBy": 1121,
      "ĠBut": 1122,
      "Ġshow": 1123,
      "nce": 1124,
      "Ġschool": 1125,
      "Ġcap": 1126,
      "Ġserv": 1127,
      "Ġless": 1128,
      "iving": 1129,
      "Ġpub": 1130,
      "Ġequ": 1131,
      "Ġeng": 1132,
      "iel": 1133,
      "Ġmin": 1134,
      "Ġenviron": 1135,
      "ergy": 1136,
      "Ġvis": 1137,
      "Ġorgan": 1138,
      "ross": 1139,
      "Ġend": 1140,
      "Ġgu": 1141,
      "itions": 1142,
      "Ġsupport": 1143,
      "com": 1144,
      "tle": 1145,
      "ories": 1146,
      "ute": 1147,
      "Ġday": 1148,
      "ization": 1149,
      "Ġplay": 1150,
      "Ġadv": 1151,
      "inal": 1152,
      "Ġactiv": 1153,
      "Ġcor": 1154,
      "ave": 1155,
      "Ġtake": 1156,
      "20": 1157,
      "Ġdown": 1158,
      "Ġtoo": 1159,
      "ier": 1160,
      "ences": 1161,
      "any": 1162,
      "ivers": 1163,
      "iety": 1164,
      "Ġproble": 1165,
      "Ġresearch": 1166,
      "self": 1167,
      "Ġexample": 1168,
      "ined": 1169,
      "Ġprot": 1170,
      "ĠWhen": 1171,
      "...": 1172,
      "Ġquest": 1173,
      "Ġbel": 1174,
      "Ġsci": 1175,
      "ral": 1176,
      "ĠAnd": 1177,
      "ĠAd": 1178,
      "Ġredu": 1179,
      "Ġbeh": 1180,
      "raph": 1181,
      "Ġagain": 1182,
      "ale": 1183,
      "Ġpot": 1184,
      "Ġsmall": 1185,
      "ĠHowever": 1186,
      "Ġchildren": 1187,
      "ĠSp": 1188,
      "und": 1189,
      "ars": 1190,
      "Ġcontin": 1191,
      "line": 1192,
      "itive": 1193,
      "omen": 1194,
      "read": 1195,
      "Ġnow": 1196,
      "ĠAr": 1197,
      "Ġposs": 1198,
      "Ġthough": 1199,
      "ty": 1200,
      "acter": 1201,
      "Ġsame": 1202,
      "Ġconf": 1203,
      "Ġcontro": 1204,
      "Ġhuman": 1205,
      "Ġcreat": 1206,
      "day": 1207,
      "air": 1208,
      "ex": 1209,
      "ock": 1210,
      "Ġmus": 1211,
      "Ġtreat": 1212,
      "imate": 1213,
      "ters": 1214,
      "land": 1215,
      "Ġsignific": 1216,
      "Ġplan": 1217,
      "____": 1218,
      "ination": 1219,
      "Ġcle": 1220,
      "Ġident": 1221,
      "Ġincluding": 1222,
      "Ġconst": 1223,
      "ills": 1224,
      "Ġiss": 1225,
      "ulation": 1226,
      "ared": 1227,
      "Ġanal": 1228,
      "Ġide": 1229,
      "Ġprof": 1230,
      "ency": 1231,
      "Ġlet": 1232,
      "ax": 1233,
      "Ġbody": 1234,
      "over": 1235,
      "ven": 1236,
      "Ġsocial": 1237,
      "Ġcalled": 1238,
      "ability": 1239,
      "Ġop": 1240,
      "ix": 1241,
      "Ġmat": 1242,
      "Ġtest": 1243,
      "Ġ7": 1244,
      "iness": 1245,
      "Ġeff": 1246,
      "Ġlearning": 1247,
      "Ġdem": 1248,
      "rodu": 1249,
      "ince": 1250,
      "Ġmust": 1251,
      "Ġ18": 1252,
      "Ġinvol": 1253,
      "Ġcommon": 1254,
      "ources": 1255,
      "Ġeduc": 1256,
      "Ġprom": 1257,
      "Ġ10": 1258,
      "Ġelect": 1259,
      "Ġris": 1260,
      "Ġenvironment": 1261,
      "Ġvarious": 1262,
      "Ġstate": 1263,
      "Ġbuild": 1264,
      "ior": 1265,
      "cent": 1266,
      "rent": 1267,
      "aterial": 1268,
      "ired": 1269,
      "less": 1270,
      "ples": 1271,
      "ateg": 1272,
      "Ġimpro": 1273,
      "ethod": 1274,
      "irect": 1275,
      "Ġaw": 1276,
      "Ġwant": 1277,
      "ify": 1278,
      "aus": 1279,
      "Ġ|": 1280,
      "Ġappro": 1281,
      "Ġcour": 1282,
      "der": 1283,
      "Ġocc": 1284,
      "The": 1285,
      "Ġconn": 1286,
      "19": 1287,
      "esp": 1288,
      "ished": 1289,
      "Ġdid": 1290,
      "lu": 1291,
      "Ġdise": 1292,
      "ains": 1293,
      "ries": 1294,
      "Ġben": 1295,
      "Ġnumber": 1296,
      "Ġknown": 1297,
      "ĠIm": 1298,
      "Ġchall": 1299,
      "Ġdel": 1300,
      "por": 1301,
      "erest": 1302,
      "Ġest": 1303,
      "Ġser": 1304,
      "Ġmet": 1305,
      "up": 1306,
      "Ġreal": 1307,
      "Ġ8": 1308,
      "Ġbo": 1309,
      "Ġeas": 1310,
      "conom": 1311,
      "iven": 1312,
      "oss": 1313,
      "Ġens": 1314,
      "ĠSo": 1315,
      "||": 1316,
      "Ġbetter": 1317,
      "âĢĶ": 1318,
      "ury": 1319,
      "Ġpur": 1320,
      "ccess": 1321,
      "Ġsaf": 1322,
      "Ġsaid": 1323,
      "Ġchang": 1324,
      "Ġsym": 1325,
      "Ġmaterial": 1326,
      "hers": 1327,
      "Ġpass": 1328,
      "Ġtop": 1329,
      "de": 1330,
      "Ġproduct": 1331,
      "ling": 1332,
      "ends": 1333,
      "oci": 1334,
      "ense": 1335,
      "Ġfin": 1336,
      "ert": 1337,
      "Ġplace": 1338,
      "rain": 1339,
      "Ġenergy": 1340,
      "lish": 1341,
      "Ġhand": 1342,
      "ration": 1343,
      "Ġtem": 1344,
      "Ġopp": 1345,
      "Ġdevelopment": 1346,
      "ocus": 1347,
      "bs": 1348,
      "ah": 1349,
      "ĠNew": 1350,
      "ern": 1351,
      "Ġmethod": 1352,
      "oms": 1353,
      "ĠIs": 1354,
      "ium": 1355,
      "Ġthree": 1356,
      "000": 1357,
      "Ġmean": 1358,
      "angu": 1359,
      "Ġphys": 1360,
      "ental": 1361,
      "els": 1362,
      "Ġele": 1363,
      "Ġwithout": 1364,
      "Ġbest": 1365,
      "Ġopt": 1366,
      "ique": 1367,
      "ĠSh": 1368,
      "Ġmark": 1369,
      "ently": 1370,
      "Ġhapp": 1371,
      ".,": 1372,
      "co": 1373,
      "ĠAt": 1374,
      "ething": 1375,
      "Ġcreate": 1376,
      "ways": 1377,
      "Ġsignificant": 1378,
      "Ġhome": 1379,
      "Ġothers": 1380,
      "Ġpresent": 1381,
      "elf": 1382,
      "ank": 1383,
      "Ġhim": 1384,
      "ner": 1385,
      "ĠOne": 1386,
      "ĠPl": 1387,
      "Ġanother": 1388,
      "iod": 1389,
      "ertain": 1390,
      "Ġdon": 1391,
      "ull": 1392,
      "ee": 1393,
      "ived": 1394,
      "Ġchange": 1395,
      "Ġsit": 1396,
      "Ġperform": 1397,
      "ids": 1398,
      "Ġlarge": 1399,
      "ances": 1400,
      "ĠâĢĺ": 1401,
      "Ġimm": 1402,
      "ention": 1403,
      "irc": 1404,
      "Ġamong": 1405,
      "Ġcell": 1406,
      "Ġsomething": 1407,
      "oring": 1408,
      "Ġessay": 1409,
      "Ġpar": 1410,
      "Ġinclude": 1411,
      "bers": 1412,
      "Ġ&": 1413,
      "Ġfac": 1414,
      "Ġpain": 1415,
      "the": 1416,
      "Ġproper": 1417,
      "ograph": 1418,
      "Ġbre": 1419,
      "oun": 1420,
      "Ġkeep": 1421,
      "Ġbus": 1422,
      "aj": 1423,
      "Ġbecome": 1424,
      "Ġhistory": 1425,
      "Ġcal": 1426,
      "orts": 1427,
      "ger": 1428,
      "Ġcrit": 1429,
      "Ġinterest": 1430,
      "Ġstill": 1431,
      "Ġprovide": 1432,
      "agement": 1433,
      "Ġgover": 1434,
      "Ġpotential": 1435,
      "Ġve": 1436,
      "Ġmaking": 1437,
      "Ġ9": 1438,
      "Ġlight": 1439,
      "Ġfunction": 1440,
      "Ġleg": 1441,
      "ogn": 1442,
      "ead": 1443,
      "ients": 1444,
      "ĠWith": 1445,
      "Ġlook": 1446,
      "par": 1447,
      ".âĢĿ": 1448,
      "Ġbelie": 1449,
      "Ġbenef": 1450,
      "Ġrepres": 1451,
      "Ġsever": 1452,
      "ouse": 1453,
      "Ġet": 1454,
      "Ġproject": 1455,
      "Ġret": 1456,
      "Ġthings": 1457,
      "Ġeconom": 1458,
      "Ġdev": 1459,
      "ological": 1460,
      "Ġfocus": 1461,
      "Ġant": 1462,
      "ĠEng": 1463,
      "ote": 1464,
      "Ġimpact": 1465,
      "Ġoper": 1466,
      "ilar": 1467,
      "Ġdr": 1468,
      "Ġcaus": 1469,
      "Ġmeans": 1470,
      "Ġaffect": 1471,
      "Ġdue": 1472,
      "ording": 1473,
      "Ġstand": 1474,
      "ield": 1475,
      "ially": 1476,
      "ision": 1477,
      "âĢĵ": 1478,
      "be": 1479,
      "Ġdesc": 1480,
      "reen": 1481,
      "Ġmar": 1482,
      "ember": 1483,
      "ason": 1484,
      "ledge": 1485,
      "Ġhere": 1486,
      "ĠQ": 1487,
      "ication": 1488,
      "to": 1489,
      "Ġgovern": 1490,
      "ĠDe": 1491,
      "az": 1492,
      "osed": 1493,
      "iver": 1494,
      "urther": 1495,
      "Ġunderstanding": 1496,
      "agn": 1497,
      "view": 1498,
      "Ġmult": 1499,
      "Ġtoget": 1500,
      "Ġtogether": 1501,
      "Ġsl": 1502,
      "ash": 1503,
      "Ġstruct": 1504,
      "Ġindu": 1505,
      "rap": 1506,
      "Ġdiscuss": 1507,
      "Ġter": 1508,
      "Ġparticular": 1509,
      "Ġmeas": 1510,
      "Ġfamily": 1511,
      "Ġnat": 1512,
      "**": 1513,
      "Ġinvest": 1514,
      "Ġmove": 1515,
      "Ġwomen": 1516,
      "arent": 1517,
      "Ġsuccess": 1518,
      "ĠRes": 1519,
      "Ġagainst": 1520,
      "Ġfew": 1521,
      "ortun": 1522,
      "Ġspecific": 1523,
      "outh": 1524,
      "ns": 1525,
      "Ġpublic": 1526,
      "Ġrelations": 1527,
      "Ġseveral": 1528,
      "Ġcontrol": 1529,
      "Ġopen": 1530,
      "Ġbased": 1531,
      "Ġbas": 1532,
      "Ġenc": 1533,
      "ĠOn": 1534,
      "gin": 1535,
      "Ġdirect": 1536,
      "Ġconnect": 1537,
      "Ġthink": 1538,
      "Ġlangu": 1539,
      "Ġel": 1540,
      "hor": 1541,
      "ditions": 1542,
      "Ġaddition": 1543,
      "Ġ=": 1544,
      "ards": 1545,
      "Ġgr": 1546,
      "ĠCl": 1547,
      "Ġgroup": 1548,
      "raw": 1549,
      "atic": 1550,
      "Ġaccess": 1551,
      "Ġnon": 1552,
      "ression": 1553,
      "Ġrole": 1554,
      "Ġtoward": 1555,
      "oid": 1556,
      "Ġ15": 1557,
      "Ġwhy": 1558,
      "iversity": 1559,
      "usion": 1560,
      "me": 1561,
      "Ġobject": 1562,
      "ource": 1563,
      "aper": 1564,
      "Ġchalleng": 1565,
      "ape": 1566,
      "Ġsystems": 1567,
      "Ġfri": 1568,
      "ified": 1569,
      "Ġskills": 1570,
      "Ġ**": 1571,
      "ption": 1572,
      "Ġanim": 1573,
      "Ġrest": 1574,
      "Ġcontrib": 1575,
      "Ġlist": 1576,
      "izing": 1577,
      "Ġalong": 1578,
      "ploy": 1579,
      "Ġcomplex": 1580,
      "Ġessential": 1581,
      "Ġcertain": 1582,
      "Ġplant": 1583,
      ",âĢĿ": 1584,
      "Ġlaw": 1585,
      "Ġexperience": 1586,
      "port": 1587,
      "Ġ0": 1588,
      "Ġworks": 1589,
      "Ġtype": 1590,
      "Ġtre": 1591,
      "Ġbehav": 1592,
      "ĠAmerican": 1593,
      "Ġavail": 1594,
      "Ġassoci": 1595,
      "Ġacross": 1596,
      "here": 1597,
      "Ġfollowing": 1598,
      "Ġexplore": 1599,
      "ats": 1600,
      "Ġfre": 1601,
      "Ġrespons": 1602,
      "Ġconsider": 1603,
      "Ġair": 1604,
      "ending": 1605,
      "Ġarea": 1606,
      "Ġdisease": 1607,
      "ĠEn": 1608,
      "abor": 1609,
      "ots": 1610,
      "Ġfore": 1611,
      "Ġlow": 1612,
      "Ġcome": 1613,
      "Ġprevent": 1614,
      "ivity": 1615,
      "Ġtool": 1616,
      "Ġbi": 1617,
      "ĠPh": 1618,
      "Ġearly": 1619,
      "ively": 1620,
      "Ġold": 1621,
      "Ġnear": 1622,
      "Ġcr": 1623,
      "br": 1624,
      "gen": 1625,
      "work": 1626,
      "Ġcost": 1627,
      "ina": 1628,
      "eed": 1629,
      "ĠThat": 1630,
      "pr": 1631,
      "str": 1632,
      "Ġfree": 1633,
      "idence": 1634,
      "ooks": 1635,
      "aut": 1636,
      "ilities": 1637,
      "Ġbusiness": 1638,
      ".\"": 1639,
      "ane": 1640,
      "Ġself": 1641,
      "Ġperiod": 1642,
      "Ġtechnology": 1643,
      "Ġrisk": 1644,
      "Ġspecial": 1645,
      "aring": 1646,
      "ajor": 1647,
      "Ġmill": 1648,
      "Ġview": 1649,
      "Ġobs": 1650,
      "Ġprogram": 1651,
      "ĠSome": 1652,
      "face": 1653,
      "Ġseem": 1654,
      "Ġorig": 1655,
      "Ġconcept": 1656,
      "Ġcountry": 1657,
      "ĠWor": 1658,
      "Ġalways": 1659,
      "Ġmind": 1660,
      "Ġkey": 1661,
      "Ġcurrent": 1662,
      "Ġcharacter": 1663,
      "oh": 1664,
      "ights": 1665,
      "Ġsince": 1666,
      "Ġrelationship": 1667,
      "uture": 1668,
      "Ġstep": 1669,
      "Ġknowledge": 1670,
      "aster": 1671,
      "Ġwords": 1672,
      "ĠTe": 1673,
      "Ġland": 1674,
      "Ġcommunity": 1675,
      "ians": 1676,
      "rist": 1677,
      "Ġinflu": 1678,
      "icle": 1679,
      "ret": 1680,
      "Ġunt": 1681,
      "aces": 1682,
      "Ġapplic": 1683,
      "apter": 1684,
      "10": 1685,
      "Ġsay": 1686,
      "Ġindividuals": 1687,
      "Ġpossible": 1688,
      "Ġ`": 1689,
      "Ġoccur": 1690,
      "ĠCol": 1691,
      "Ġlast": 1692,
      "Ġblood": 1693,
      "Ġprofess": 1694,
      "ik": 1695,
      "Ġbook": 1696,
      "Ġorder": 1697,
      "Ġissues": 1698,
      "aging": 1699,
      "ysis": 1700,
      "ones": 1701,
      "Ġintern": 1702,
      "ĠCan": 1703,
      "oura": 1704,
      "Ġrepresent": 1705,
      "Ġlim": 1706,
      "istic": 1707,
      "ator": 1708,
      "orth": 1709,
      "lished": 1710,
      "sy": 1711,
      "Ġcomput": 1712,
      "Ġpoint": 1713,
      "Ġcomb": 1714,
      "Ġill": 1715,
      "Ġhig": 1716,
      "Ġpress": 1717,
      "orn": 1718,
      "Ġ'": 1719,
      "Ġways": 1720,
      "Ġprotect": 1721,
      "olution": 1722,
      "Ġable": 1723,
      "Ġdig": 1724,
      "Ġshort": 1725,
      "Ġdeterm": 1726,
      "Ġeducation": 1727,
      "Ġ[": 1728,
      "urop": 1729,
      "Ġvol": 1730,
      "----------------": 1731,
      "Ġjour": 1732,
      "Ġtal": 1733,
      "Ġtimes": 1734,
      "ended": 1735,
      "Ġcause": 1736,
      "Ġlevels": 1737,
      "ug": 1738,
      "amp": 1739,
      "Ġareas": 1740,
      "ables": 1741,
      "eral": 1742,
      "Ġcirc": 1743,
      "Ġtradition": 1744,
      "ream": 1745,
      "Ġsecond": 1746,
      "ney": 1747,
      "Ġnatural": 1748,
      "ibility": 1749,
      "Ġcourse": 1750,
      "Ġstrateg": 1751,
      "Ġavailable": 1752,
      "app": 1753,
      "Ġflow": 1754,
      "Ġhard": 1755,
      "ately": 1756,
      "Ġpost": 1757,
      "Ġtoday": 1758,
      "Ġlocal": 1759,
      "Ġmajor": 1760,
      "ĠWhile": 1761,
      "Ġhead": 1762,
      "iting": 1763,
      "Ġmil": 1764,
      "ole": 1765,
      "Ġrele": 1766,
      "Ġnecess": 1767,
      "ox": 1768,
      "Ġbro": 1769,
      "Ġtypes": 1770,
      "thing": 1771,
      "Ġreport": 1772,
      "ode": 1773,
      "erc": 1774,
      "ĠComm": 1775,
      "Ġlanguage": 1776,
      "##": 1777,
      "asing": 1778,
      "Ġrece": 1779,
      "Ġyoung": 1780,
      "Ġneeds": 1781,
      "utions": 1782,
      "idd": 1783,
      "hem": 1784,
      "Ġsimilar": 1785,
      "Ġwar": 1786,
      "Ġ.": 1787,
      "ĠSe": 1788,
      "ĠOr": 1789,
      "Ġmusic": 1790,
      "Ġturn": 1791,
      "verse": 1792,
      "Ġtry": 1793,
      "Ġimprove": 1794,
      "sw": 1795,
      "ĠZ": 1796,
      "man": 1797,
      "Ġstrong": 1798,
      "Ġglob": 1799,
      "cle": 1800,
      "Ġwee": 1801,
      "Ġpolit": 1802,
      "Ġmaintain": 1803,
      "put": 1804,
      "Ġscient": 1805,
      "tt": 1806,
      "Ġsens": 1807,
      "Ġstory": 1808,
      "Ġresources": 1809,
      "selves": 1810,
      "ised": 1811,
      "Ġmen": 1812,
      "Ġvir": 1813,
      "ission": 1814,
      "Ġcontain": 1815,
      "Ġliter": 1816,
      "Ġconcer": 1817,
      "ĠNow": 1818,
      "Ġcy": 1819,
      "Ġfuture": 1820,
      "aps": 1821,
      "Ġpast": 1822,
      "Ġfil": 1823,
      "omm": 1824,
      "Ġwriting": 1825,
      "arc": 1826,
      "Ġmot": 1827,
      "Ġproblem": 1828,
      "ges": 1829,
      "Ġprin": 1830,
      "Ġquestions": 1831,
      "Ġhaving": 1832,
      "Ġrequire": 1833,
      "atch": 1834,
      "Ġrun": 1835,
      "ggest": 1836,
      "ĠBe": 1837,
      "Ġconditions": 1838,
      "Ġprim": 1839,
      "Ġparticip": 1840,
      "etic": 1841,
      "ush": 1842,
      "ili": 1843,
      "Ġpersonal": 1844,
      "yd": 1845,
      "urope": 1846,
      "Ġmov": 1847,
      "inking": 1848,
      "ides": 1849,
      "Ġage": 1850,
      "Ġsing": 1851,
      "ument": 1852,
      "duct": 1853,
      "Ġsound": 1854,
      "Ġactivities": 1855,
      "Ġcase": 1856,
      "Ġgrowth": 1857,
      "ĠAf": 1858,
      "of": 1859,
      "Ġput": 1860,
      "Ġer": 1861,
      "oph": 1862,
      "Ġunique": 1863,
      "ring": 1864,
      "ators": 1865,
      "ably": 1866,
      "osp": 1867,
      "....": 1868,
      "ĠLet": 1869,
      "ĠâĢĶ": 1870,
      "ames": 1871,
      "aching": 1872,
      "iction": 1873,
      "Ġchanges": 1874,
      "Ġsuggest": 1875,
      "Ġproblems": 1876,
      "lement": 1877,
      "cul": 1878,
      "etimes": 1879,
      "oad": 1880,
      "iple": 1881,
      "atory": 1882,
      "Ġworking": 1883,
      "use": 1884,
      "Ġteac": 1885,
      "Ġmakes": 1886,
      "icult": 1887,
      "Ġ12": 1888,
      "atures": 1889,
      "Ġopportun": 1890,
      "Ġappear": 1891,
      "Ġauthor": 1892,
      "oot": 1893,
      "Ġkind": 1894,
      "Ġupon": 1895,
      "Ġuntil": 1896,
      "Ġgiven": 1897,
      "Ġphysical": 1898,
      "Ġbegin": 1899,
      "Ġexist": 1900,
      "ton": 1901,
      "Ġnet": 1902,
      "Ġtreatment": 1903,
      "Ġgovernment": 1904,
      "ires": 1905,
      "Ġtext": 1906,
      "ĠAll": 1907,
      "Ġcolle": 1908,
      "by": 1909,
      "Ġnext": 1910,
      "Ġlittle": 1911,
      "Ġsw": 1912,
      "Ġclear": 1913,
      "Ġhistor": 1914,
      "Ġname": 1915,
      "ĠEar": 1916,
      "chie": 1917,
      "ooking": 1918,
      "une": 1919,
      "Ġmanagement": 1920,
      "oney": 1921,
      "icient": 1922,
      "side": 1923,
      "Ġtowards": 1924,
      "ope": 1925,
      "Ġey": 1926,
      "iques": 1927,
      "Ġpaper": 1928,
      "ĠChrist": 1929,
      "ths": 1930,
      "ecially": 1931,
      "ĠEurope": 1932,
      "Ġheart": 1933,
      "Ġemploy": 1934,
      "Ġbig": 1935,
      "agine": 1936,
      "Ġfar": 1937,
      "ĠGod": 1938,
      "omes": 1939,
      "ĠBl": 1940,
      "Ġestab": 1941,
      "Ġdays": 1942,
      "Ġsure": 1943,
      "Ġ$": 1944,
      "Ġfour": 1945,
      "Ġconsum": 1946,
      "Ġvalue": 1947,
      "Ġparent": 1948,
      "ĠInt": 1949,
      "Ġesp": 1950,
      "though": 1951,
      "ĠMed": 1952,
      "Ġfactors": 1953,
      "ening": 1954,
      "ured": 1955,
      "Ġgive": 1956,
      "Ġplants": 1957,
      "Ġmedical": 1958,
      "fact": 1959,
      "ĠStud": 1960,
      "Ġthroughout": 1961,
      "Ġrecogn": 1962,
      "Ġamount": 1963,
      "Ġquality": 1964,
      "Ġdescrib": 1965,
      "sych": 1966,
      "Ġprev": 1967,
      "Ġpractice": 1968,
      "Ġcountries": 1969,
      "Ġresults": 1970,
      "Ġever": 1971,
      "Ġspace": 1972,
      "ann": 1973,
      "Ġhelps": 1974,
      "Ġpolic": 1975,
      "Ġtemper": 1976,
      "ird": 1977,
      "ĠAfric": 1978,
      "Ġfurther": 1979,
      "utes": 1980,
      "Ġcru": 1981,
      "Ġinit": 1982,
      "ours": 1983,
      "Ġ199": 1984,
      "af": 1985,
      "Ġaway": 1986,
      "Ġterm": 1987,
      "Ġnut": 1988,
      "Ġarg": 1989,
      "Ġline": 1990,
      "ĠAfter": 1991,
      "Ġnature": 1992,
      "Ġemot": 1993,
      "not": 1994,
      "Ġemb": 1995,
      "Ġaddress": 1996,
      "ither": 1997,
      "ĠInst": 1998,
      "Ġassociated": 1999,
      "leep": 2000,
      "acc": 2001,
      "Ġindust": 2002,
      "min": 2003,
      "Ġlater": 2004,
      "Ġtru": 2005,
      "Ġcomes": 2006,
      "Ġbrain": 2007,
      "lying": 2008,
      "ĠFr": 2009,
      "Ġeffects": 2010,
      "Ġcomplete": 2011,
      "Ġhigher": 2012,
      "nces": 2013,
      "Ġonline": 2014,
      "Ġcho": 2015,
      "Ġspecies": 2016,
      "Ġmodern": 2017,
      "Ġregard": 2018,
      "ym": 2019,
      "Ġaccount": 2020,
      "Ġmarket": 2021,
      "Ġintrodu": 2022,
      "ĠSc": 2023,
      "aves": 2024,
      "Ġdifficult": 2025,
      "Ġachie": 2026,
      "ware": 2027,
      "Ġensure": 2028,
      "ĠUniversity": 2029,
      "Ġaspect": 2030,
      "Ġvari": 2031,
      "anced": 2032,
      "ibr": 2033,
      "Ġfull": 2034,
      "ery": 2035,
      "ĠUnited": 2036,
      "Ġsitu": 2037,
      "ĠCent": 2038,
      "Ġ17": 2039,
      "oose": 2040,
      "Ġgoing": 2041,
      "Ġespecially": 2042,
      "ĠEm": 2043,
      "Ġincrease": 2044,
      "Ġquestion": 2045,
      "yn": 2046,
      "Ġside": 2047,
      "Ġstudies": 2048,
      "for": 2049,
      "Ġground": 2050,
      "cient": 2051,
      "Ġproduction": 2052,
      "Ġi": 2053,
      "Ġusually": 2054,
      "ĠUS": 2055,
      "Ġrad": 2056,
      "Ġrelig": 2057,
      "icro": 2058,
      "asc": 2059,
      "Ġanalysis": 2060,
      "Ġcollect": 2061,
      "Ġenough": 2062,
      "oint": 2063,
      "Ġcut": 2064,
      "elling": 2065,
      "Ġcoll": 2066,
      "Ġchallenges": 2067,
      "ising": 2068,
      "ĠFin": 2069,
      "ruction": 2070,
      "Ġteam": 2071,
      "Ġsubject": 2072,
      "Ġwhether": 2073,
      "acy": 2074,
      "Ġpositive": 2075,
      "Ġdeep": 2076,
      "Ġprop": 2077,
      "ww": 2078,
      "itud": 2079,
      "Ġcentury": 2080,
      "Ġsurface": 2081,
      "Ġmaterials": 2082,
      "plic": 2083,
      "Ġchem": 2084,
      "mit": 2085,
      "Ġexpect": 2086,
      "Ġpred": 2087,
      "Ġz": 2088,
      "Ġinteract": 2089,
      "Ġword": 2090,
      "Ġsympt": 2091,
      "ler": 2092,
      "ĠTr": 2093,
      "ĠYour": 2094,
      "Ġver": 2095,
      "let": 2096,
      "ips": 2097,
      "ained": 2098,
      "Ġneg": 2099,
      "18": 2100,
      "ried": 2101,
      "ray": 2102,
      "Ġdam": 2103,
      "Ġnorm": 2104,
      "Ġproducts": 2105,
      "sequ": 2106,
      "ext": 2107,
      "ety": 2108,
      "Ġcritical": 2109,
      "________": 2110,
      "Ġstress": 2111,
      "ened": 2112,
      "Ġsum": 2113,
      "ored": 2114,
      "nal": 2115,
      "Ġrecord": 2116,
      ",\"": 2117,
      "ification": 2118,
      "ĠAm": 2119,
      "ĠâĢ¢": 2120,
      "Ġgroups": 2121,
      "Ġsimple": 2122,
      "lex": 2123,
      "Ġnever": 2124,
      "Ġmodel": 2125,
      "Ġpopular": 2126,
      "Ġpatients": 2127,
      "fer": 2128,
      "edi": 2129,
      "ĠMan": 2130,
      "Ġpopulation": 2131,
      "Ġ16": 2132,
      "atives": 2133,
      "Ġscience": 2134,
      "Ġsam": 2135,
      "Ġansw": 2136,
      "12": 2137,
      "fully": 2138,
      "sp": 2139,
      "Ġtechniques": 2140,
      "ĠDis": 2141,
      "Ġsoil": 2142,
      "ches": 2143,
      "joy": 2144,
      "Ġfield": 2145,
      "Ġleft": 2146,
      "Ġask": 2147,
      "Ġvide": 2148,
      "Ġabove": 2149,
      "Ġlive": 2150,
      "ints": 2151,
      "Ġwind": 2152,
      "Ġliving": 2153,
      "Ġdom": 2154,
      "ule": 2155,
      "Ġcity": 2156,
      "clusion": 2157,
      "Ġlay": 2158,
      "ĠDo": 2159,
      "Ġpattern": 2160,
      "Ġcontinu": 2161,
      "Ġseen": 2162,
      "Ġ...": 2163,
      "ilt": 2164,
      "Ġexperiences": 2165,
      "Ġcells": 2166,
      "Ġobserv": 2167,
      "Ġglobal": 2168,
      "Ġlikely": 2169,
      "Ġsociety": 2170,
      "Ġgeneral": 2171,
      "arr": 2172,
      "Ġclose": 2173,
      "ene": 2174,
      "ises": 2175,
      "Ġmethods": 2176,
      "Ġ14": 2177,
      "ales": 2178,
      "Ġallows": 2179,
      "aim": 2180,
      "Ġinn": 2181,
      "Ġsomeone": 2182,
      "Ġdetail": 2183,
      "ĠStates": 2184,
      "ĠNational": 2185,
      "Ġmeet": 2186,
      "Ġtraditional": 2187,
      "Ġsoft": 2188,
      "Ġmach": 2189,
      "rug": 2190,
      "Ġdeath": 2191,
      "Ġrange": 2192,
      "Ġrespect": 2193,
      "rams": 2194,
      "Ġshare": 2195,
      "'re": 2196,
      "rel": 2197,
      "illed": 2198,
      "Ġmembers": 2199,
      "inary": 2200,
      "Ġfund": 2201,
      "ĠMore": 2202,
      "Ġthought": 2203,
      "Ġinteg": 2204,
      "ĠWorld": 2205,
      "Ġcommunities": 2206,
      "ged": 2207,
      "Ã©": 2208,
      "Ġbal": 2209,
      "Ġparts": 2210,
      "ancial": 2211,
      "Ġservices": 2212,
      "tal": 2213,
      "Ġsuff": 2214,
      "reng": 2215,
      "Ġharm": 2216,
      "ned": 2217,
      "Ġindic": 2218,
      "ĠCont": 2219,
      "Ġability": 2220,
      "ĠShe": 2221,
      "Ġcompon": 2222,
      "Ġbenefits": 2223,
      "Ġut": 2224,
      "Ġreally": 2225,
      "Ġreason": 2226,
      "Ġmeaning": 2227,
      "ĠX": 2228,
      "Ġcases": 2229,
      "Ġreduce": 2230,
      "Ġstat": 2231,
      "ĠAb": 2232,
      "apt": 2233,
      "Ġculture": 2234,
      "Ġfall": 2235,
      "Ġbeaut": 2236,
      "Ġactivity": 2237,
      "Ġenh": 2238,
      "Ġlove": 2239,
      "Ġcust": 2240,
      "Ġhouse": 2241,
      "Ġpercent": 2242,
      "Ġcolor": 2243,
      "Ġidea": 2244,
      "Ġnecessary": 2245,
      "come": 2246,
      "Ġenjoy": 2247,
      "erence": 2248,
      "Ġhold": 2249,
      "Ġhealthy": 2250,
      "Ġeffective": 2251,
      "rect": 2252,
      "Ġsleep": 2253,
      "ĠAcc": 2254,
      "ĠMay": 2255,
      "Ġencoura": 2256,
      "Ġsingle": 2257,
      "ĠMar": 2258,
      "ender": 2259,
      "Ġoffer": 2260,
      "Ġbuilding": 2261,
      "Ġsafe": 2262,
      "Ġquick": 2263,
      "ĠEnglish": 2264,
      "Ġfrequ": 2265,
      "Ġsymptoms": 2266,
      "ĠUnder": 2267,
      "Ġthemselves": 2268,
      "yle": 2269,
      "Ġbehavior": 2270,
      "ipp": 2271,
      "ules": 2272,
      "Ġcrucial": 2273,
      "ĠApp": 2274,
      "aken": 2275,
      "Ġarch": 2276,
      "Ġpath": 2277,
      "light": 2278,
      "ĠCO": 2279,
      "emic": 2280,
      "istance": 2281,
      "unt": 2282,
      "Ġsays": 2283,
      "ison": 2284,
      "Ġlot": 2285,
      "ĠKe": 2286,
      "Ġport": 2287,
      "aries": 2288,
      "Ġlower": 2289,
      "ĠThrough": 2290,
      "Ġincreased": 2291,
      "Ġemerg": 2292,
      "Ġpolitical": 2293,
      "Ġhowever": 2294,
      "NA": 2295,
      "alt": 2296,
      "15": 2297,
      "Ġloss": 2298,
      "Ġprovides": 2299,
      "Ġlab": 2300,
      "amm": 2301,
      "ĠBrit": 2302,
      "Ġregular": 2303,
      "Ġtraining": 2304,
      "Ġcultural": 2305,
      "Ġabs": 2306,
      "Ġtherap": 2307,
      "Ġrelated": 2308,
      "Ġcreating": 2309,
      "ok": 2310,
      "Ġur": 2311,
      "Ġsent": 2312,
      "Ġevent": 2313,
      "Ġcreated": 2314,
      "ging": 2315,
      "ites": 2316,
      "Ġbreak": 2317,
      "Ġpurp": 2318,
      "chan": 2319,
      "overed": 2320,
      "Ġdraw": 2321,
      "ĠResear": 2322,
      "Ġlives": 2323,
      "Ġge": 2324,
      "ready": 2325,
      "ivil": 2326,
      "Ġrather": 2327,
      "Ġreturn": 2328,
      "Ġdeg": 2329,
      "ĠAct": 2330,
      "Ġsust": 2331,
      "Ġaccording": 2332,
      "urs": 2333,
      "Ġengine": 2334,
      "rim": 2335,
      "Ġyet": 2336,
      "Ġfriends": 2337,
      "Ġtools": 2338,
      "go": 2339,
      "Ġonce": 2340,
      "ĠLe": 2341,
      "Ġeveryone": 2342,
      "Ġprote": 2343,
      "ĠMe": 2344,
      "Ġassess": 2345,
      "Ġrights": 2346,
      "Ġreading": 2347,
      "Ġsometimes": 2348,
      "Ġenvironmental": 2349,
      "30": 2350,
      "ography": 2351,
      "aches": 2352,
      "Ġmillion": 2353,
      "Ġresearc": 2354,
      "Ġstories": 2355,
      "ript": 2356,
      "Ġtar": 2357,
      "Ġbra": 2358,
      "//": 2359,
      "Ġpay": 2360,
      "ĠHere": 2361,
      "way": 2362,
      "rict": 2363,
      "erous": 2364,
      "Ġsun": 2365,
      "wh": 2366,
      "ĠFrom": 2367,
      "Ġbecame": 2368,
      "Ġincreasing": 2369,
      "Ġanaly": 2370,
      "Ġcommunication": 2371,
      "icial": 2372,
      "iddle": 2373,
      "oman": 2374,
      "Ġprob": 2375,
      "Ġexerc": 2376,
      "Ġalready": 2377,
      "Ġtravel": 2378,
      "ĠIndia": 2379,
      "Ġwide": 2380,
      "Ġdoc": 2381,
      "augh": 2382,
      "most": 2383,
      "Ġstreng": 2384,
      "Ġ30": 2385,
      "lt": 2386,
      "verage": 2387,
      "epend": 2388,
      "Ġevidence": 2389,
      "Ġce": 2390,
      "Ġeither": 2391,
      "Ġapproach": 2392,
      "Ġsense": 2393,
      "Ġ11": 2394,
      "Ġstudent": 2395,
      "Ġclean": 2396,
      "fect": 2397,
      "Ġoil": 2398,
      "alu": 2399,
      "ronic": 2400,
      "ĠÂ": 2401,
      "acks": 2402,
      "astic": 2403,
      "Ġguid": 2404,
      "Ġrequired": 2405,
      "bon": 2406,
      "ulations": 2407,
      "Ġvacc": 2408,
      "urity": 2409,
      "Ġpressure": 2410,
      "Ġneeded": 2411,
      "Ġexc": 2412,
      "Ġsuper": 2413,
      "Ġsource": 2414,
      "Ġsubst": 2415,
      "like": 2416,
      "aling": 2417,
      "Ġindustry": 2418,
      "ĠDr": 2419,
      "Ġsize": 2420,
      "Ġstates": 2421,
      "Ġimplement": 2422,
      "Ġarr": 2423,
      "atter": 2424,
      "based": 2425,
      "ung": 2426,
      "Ġcancer": 2427,
      "Ġmoney": 2428,
      "ming": 2429,
      "ufact": 2430,
      "Ġbelow": 2431,
      "amin": 2432,
      "Ġdemon": 2433,
      "istics": 2434,
      "Ġyourself": 2435,
      "Ġvers": 2436,
      "Ġavoid": 2437,
      "Ġemp": 2438,
      "Ġtas": 2439,
      "Ġreact": 2440,
      "Ġevents": 2441,
      "Ġreflect": 2442,
      "://": 2443,
      "Ġdog": 2444,
      "Ġleast": 2445,
      "Ġrecomm": 2446,
      "ae": 2447,
      "yl": 2448,
      "Ġrate": 2449,
      "imately": 2450,
      "Ġweek": 2451,
      "ze": 2452,
      "Ġattention": 2453,
      "ĠHealth": 2454,
      "yth": 2455,
      "Ġsex": 2456,
      "Ġidentify": 2457,
      "Ġelements": 2458,
      "aged": 2459,
      "Ġvalu": 2460,
      "ival": 2461,
      "ĠHist": 2462,
      "Ġpractices": 2463,
      "Ġperformance": 2464,
      "oon": 2465,
      "Ġmultiple": 2466,
      "ctions": 2467,
      "Ġspe": 2468,
      "Ġtaking": 2469,
      "Ġmental": 2470,
      "Ġcompet": 2471,
      "reci": 2472,
      "ĠJoh": 2473,
      "ĠPer": 2474,
      "ĠMany": 2475,
      "ems": 2476,
      "ici": 2477,
      "ume": 2478,
      "Ġaim": 2479,
      "Ġfinancial": 2480,
      "iol": 2481,
      "Ġentire": 2482,
      "Ġdesigned": 2483,
      "eter": 2484,
      "50": 2485,
      "Ġtell": 2486,
      "ĠWar": 2487,
      "care": 2488,
      "Ġdiet": 2489,
      "Ġstructure": 2490,
      "bo": 2491,
      "Ġbring": 2492,
      "ĠSu": 2493,
      "ĠGen": 2494,
      "Ġcontent": 2495,
      "ĠQu": 2496,
      "hing": 2497,
      "Ġanimals": 2498,
      "Ġeconomic": 2499,
      "esc": 2500,
      "Ġunit": 2501,
      "Ġpsych": 2502,
      "Ġeth": 2503,
      "Ġsurround": 2504,
      "Ġcompan": 2505,
      "Ġimportance": 2506,
      "Ġcannot": 2507,
      "Ġaud": 2508,
      "raft": 2509,
      "Ġwrite": 2510,
      "Ġarticle": 2511,
      "Ġconsidered": 2512,
      "reg": 2513,
      "Ġred": 2514,
      "Ġconsist": 2515,
      "Ġdeveloped": 2516,
      "ott": 2517,
      "Ġste": 2518,
      "ystem": 2519,
      "Ġgreen": 2520,
      "Ġinstead": 2521,
      "hold": 2522,
      "Ġconduct": 2523,
      "Ġterms": 2524,
      "ĠEarth": 2525,
      "ĠTra": 2526,
      "Ġactually": 2527,
      "Ġvalues": 2528,
      "orpor": 2529,
      "ply": 2530,
      "onse": 2531,
      "Ġexpress": 2532,
      "cies": 2533,
      "erve": 2534,
      "Ġcomputer": 2535,
      "Ġwhole": 2536,
      "ĠCar": 2537,
      "ĠIntern": 2538,
      "bol": 2539,
      "aily": 2540,
      "ID": 2541,
      "wor": 2542,
      "Ġmass": 2543,
      "Ġ13": 2544,
      "Ġsafety": 2545,
      "het": 2546,
      "ership": 2547,
      "Ġdoct": 2548,
      "Ġjob": 2549,
      "Ġskin": 2550,
      "my": 2551,
      "Ġmor": 2552,
      "rs": 2553,
      "ĠPart": 2554,
      "Ġoverall": 2555,
      "Ġcompany": 2556,
      "Ġcontinue": 2557,
      "eration": 2558,
      "Ġfig": 2559,
      "Ġmom": 2560,
      "Ġmess": 2561,
      "In": 2562,
      "alf": 2563,
      "Ġsmo": 2564,
      "Ġdigital": 2565,
      "14": 2566,
      "place": 2567,
      "standing": 2568,
      "ĠPe": 2569,
      "ĠUs": 2570,
      "Ġthinking": 2571,
      "ĠII": 2572,
      "Ġheat": 2573,
      "ump": 2574,
      "ĠGe": 2575,
      "16": 2576,
      "Ġ+": 2577,
      "osis": 2578,
      "Ġphot": 2579,
      "Ġparticularly": 2580,
      "Ġreview": 2581,
      "ĠAust": 2582,
      "avor": 2583,
      "ologies": 2584,
      "Ġbar": 2585,
      "Ġideas": 2586,
      "itation": 2587,
      "ĠAss": 2588,
      "ĠRec": 2589,
      "ma": 2590,
      "Ġbir": 2591,
      "Ġla": 2592,
      "Ġremain": 2593,
      "Ġinnov": 2594,
      "ĠCons": 2595,
      "Ġdest": 2596,
      "Ġminim": 2597,
      "Ġremember": 2598,
      "ground": 2599,
      "hern": 2600,
      "Ġsustain": 2601,
      "pro": 2602,
      "Ġheav": 2603,
      "Ġdone": 2604,
      "ĠNo": 2605,
      "Ġcop": 2606,
      "Ġtarget": 2607,
      "ony": 2608,
      "Ġfat": 2609,
      "icles": 2610,
      "iment": 2611,
      "uck": 2612,
      "ront": 2613,
      "cience": 2614,
      "eds": 2615,
      "Ġnational": 2616,
      "Ġmeasure": 2617,
      "Ġtheory": 2618,
      "Ġmatter": 2619,
      "Ġwritten": 2620,
      "ĠOur": 2621,
      "rast": 2622,
      "Ġselect": 2623,
      "ĠGerm": 2624,
      "Ġpict": 2625,
      "Ġeasy": 2626,
      "yond": 2627,
      "Ġshap": 2628,
      "Ġpriv": 2629,
      "ropri": 2630,
      "Ġann": 2631,
      "Ġtransform": 2632,
      "ont": 2633,
      "Ġcame": 2634,
      "Ġface": 2635,
      "osing": 2636,
      "Ġchemical": 2637,
      "ĠFirst": 2638,
      "Ġmedia": 2639,
      "Ġsat": 2640,
      "Ġjourney": 2641,
      "odies": 2642,
      "ror": 2643,
      "Ġmanufact": 2644,
      "Ġdemonstr": 2645,
      "Ġstop": 2646,
      "ĠPre": 2647,
      "Ġcustom": 2648,
      "Ġblack": 2649,
      "Ġwal": 2650,
      "Ġdrug": 2651,
      "vant": 2652,
      "ster": 2653,
      "Ġstay": 2654,
      "Ġwhite": 2655,
      "Ġsepar": 2656,
      "Ġclimate": 2657,
      "ĠSoc": 2658,
      "new": 2659,
      "Ġresearchers": 2660,
      "ĠAmerica": 2661,
      "Ġetc": 2662,
      "ss": 2663,
      "Ġfem": 2664,
      "Ġlands": 2665,
      "Ġrev": 2666,
      "Ġproduce": 2667,
      "pid": 2668,
      "Ġtaken": 2669,
      "ĠPol": 2670,
      "Ġmedic": 2671,
      "itution": 2672,
      "enced": 2673,
      "Ġweight": 2674,
      "Ġinstance": 2675,
      "Ġleading": 2676,
      "Ġgreater": 2677,
      "Ġmechan": 2678,
      "Ġincludes": 2679,
      "Ġflu": 2680,
      "aced": 2681,
      "hib": 2682,
      "sc": 2683,
      "Ġprograms": 2684,
      "Ġprovided": 2685,
      "Ġhab": 2686,
      "ĠCal": 2687,
      "ĠDep": 2688,
      "know": 2689,
      "ĠPar": 2690,
      "ĠGl": 2691,
      "Ġinsp": 2692,
      "Ġtemperature": 2693,
      "Ġdistrib": 2694,
      "Ġprimary": 2695,
      "ĠPr": 2696,
      "Ġimage": 2697,
      "ĠMy": 2698,
      "ĠOf": 2699,
      "Ġadult": 2700,
      "Ġvideo": 2701,
      "ĠGu": 2702,
      "Ġhistorical": 2703,
      "Ġox": 2704,
      "ĠCo": 2705,
      "Ġcat": 2706,
      "11": 2707,
      "vere": 2708,
      "itude": 2709,
      "iam": 2710,
      "Ġshows": 2711,
      "gest": 2712,
      "Ġbooks": 2713,
      "ĠSouth": 2714,
      "Ġsources": 2715,
      "ĠComp": 2716,
      "Ġextra": 2717,
      "Ġforms": 2718,
      "Ġsite": 2719,
      "Ġdeb": 2720,
      "isions": 2721,
      "Ġexploring": 2722,
      "'ll": 2723,
      "fort": 2724,
      "Ġstarted": 2725,
      "):": 2726,
      "inating": 2727,
      "Ġaltern": 2728,
      "Ġ100": 2729,
      "Ġuses": 2730,
      "Ġprogress": 2731,
      "ĠRep": 2732,
      "Ġresponse": 2733,
      "Ġinvolved": 2734,
      "oses": 2735,
      "igen": 2736,
      "Ġbehind": 2737,
      "ER": 2738,
      "aving": 2739,
      "ĠResearch": 2740,
      "Ġdaily": 2741,
      "Ġlif": 2742,
      "porary": 2743,
      "Ġdoing": 2744,
      "Ġtransport": 2745,
      "order": 2746,
      "enn": 2747,
      "Ġfost": 2748,
      "Ġwond": 2749,
      "Ġones": 2750,
      "Ġregion": 2751,
      "Ġissue": 2752,
      "Ġaware": 2753,
      "Ġparents": 2754,
      "Ġap": 2755,
      "Ġcondition": 2756,
      "Ġcapt": 2757,
      "Ġtook": 2758,
      "ustr": 2759,
      "reme": 2760,
      "izations": 2761,
      "Ġcontact": 2762,
      "Ġgrowing": 2763,
      "play": 2764,
      "Ġaction": 2765,
      "oday": 2766,
      "Ġspir": 2767,
      "ĠOver": 2768,
      "Ġjo": 2769,
      "Ġstrategies": 2770,
      "ese": 2771,
      "ilies": 2772,
      "Ġelectric": 2773,
      "Ġfire": 2774,
      "Ġcheck": 2775,
      "Ġvaluable": 2776,
      "room": 2777,
      "ĠNot": 2778,
      "Ġoutside": 2779,
      "val": 2780,
      "Ġfeatures": 2781,
      "Ġaccept": 2782,
      "Ġinside": 2783,
      "Ġpromot": 2784,
      "iation": 2785,
      "elt": 2786,
      "ched": 2787,
      "Ġfarm": 2788,
      "Ġhumans": 2789,
      "Ġpatient": 2790,
      "Ġsimply": 2791,
      "Ġprocesses": 2792,
      "Ġbasic": 2793,
      "Ġservice": 2794,
      "ha": 2795,
      "Ġitself": 2796,
      "ĠReg": 2797,
      "hood": 2798,
      "Ġappreci": 2799,
      "avig": 2800,
      "Ġnight": 2801,
      "Ġopportunities": 2802,
      "Ġprevious": 2803,
      "Ġwebs": 2804,
      "rior": 2805,
      "ension": 2806,
      "Ġthing": 2807,
      "Ġdifference": 2808,
      "Ġeverything": 2809,
      "Ġpage": 2810,
      "ĠLear": 2811,
      "Ġvisit": 2812,
      "Ġbroad": 2813,
      "ĠAccording": 2814,
      "Ġhours": 2815,
      "Ġbegan": 2816,
      "chol": 2817,
      "Ġinfect": 2818,
      "Ġoriginal": 2819,
      "21": 2820,
      "Ġfive": 2821,
      "umb": 2822,
      "ls": 2823,
      "Ġposition": 2824,
      "Ġaspects": 2825,
      "ores": 2826,
      "Ġvisual": 2827,
      "urch": 2828,
      "Ġoffers": 2829,
      "ĠImagine": 2830,
      "ider": 2831,
      "sh": 2832,
      "AR": 2833,
      "Ch": 2834,
      "arily": 2835,
      "Ġcontext": 2836,
      "ublic": 2837,
      "ley": 2838,
      "Ġtrue": 2839,
      "more": 2840,
      "rew": 2841,
      "Ġgard": 2842,
      "Ġoptim": 2843,
      "ience": 2844,
      "ĠSim": 2845,
      "ensive": 2846,
      "Ġdoesn": 2847,
      "mar": 2848,
      "Ġslow": 2849,
      "ĠAg": 2850,
      "Ġdefin": 2851,
      "Ġcit": 2852,
      "ĠHis": 2853,
      "Ġfail": 2854,
      "abet": 2855,
      "Ġchapter": 2856,
      "Ġrecent": 2857,
      "ils": 2858,
      "Ġfish": 2859,
      "Ġfeed": 2860,
      "Ġinvolves": 2861,
      "uel": 2862,
      "Ġbelieve": 2863,
      "hel": 2864,
      "ĠMost": 2865,
      "izes": 2866,
      "Ġappl": 2867,
      "Ġconc": 2868,
      "osure": 2869,
      "Ġsurv": 2870,
      "Ġcoun": 2871,
      "Ġexact": 2872,
      "ĠJust": 2873,
      "Ġperspect": 2874,
      "lection": 2875,
      "Ġdiverse": 2876,
      "Ġsymbol": 2877,
      "Ġinj": 2878,
      "Ġachieve": 2879,
      "Ġdevices": 2880,
      "Ġwild": 2881,
      "Ġpublished": 2882,
      "itary": 2883,
      "Ġprep": 2884,
      "Ġcorrect": 2885,
      "iciency": 2886,
      "Ġlink": 2887,
      "osition": 2888,
      "Ġspread": 2889,
      "Ġmicro": 2890,
      "Ġshape": 2891,
      "Ġbacter": 2892,
      "Ġclaim": 2893,
      "Ġlooking": 2894,
      "ĠAustral": 2895,
      "Ġreve": 2896,
      "Ġrelationships": 2897,
      "minist": 2898,
      "reek": 2899,
      "duc": 2900,
      "ellig": 2901,
      "ows": 2902,
      "Ġbeyond": 2903,
      ".)": 2904,
      "Ġshown": 2905,
      "ĠGra": 2906,
      "Ġdeveloping": 2907,
      "den": 2908,
      "oor": 2909,
      "ĠNorth": 2910,
      "ĠWhy": 2911,
      "ties": 2912,
      "iful": 2913,
      "ĠRem": 2914,
      "oved": 2915,
      "Ġwin": 2916,
      "Ġgame": 2917,
      "cious": 2918,
      "Ġgetting": 2919,
      "ĠAlthough": 2920,
      "amed": 2921,
      "Ġ,": 2922,
      "empt": 2923,
      "ĠStep": 2924,
      "Ġbuilt": 2925,
      "Ġprec": 2926,
      "Ġcauses": 2927,
      "ios": 2928,
      "ES": 2929,
      "Ġvariety": 2930,
      "Ġled": 2931,
      "Ġinfluence": 2932,
      "200": 2933,
      "Ġx": 2934,
      "Ġpack": 2935,
      "ĠFe": 2936,
      "Ġcross": 2937,
      "anks": 2938,
      "ying": 2939,
      "Ġstru": 2940,
      "Ġrout": 2941,
      "ancing": 2942,
      "Ġsteps": 2943,
      "Ġsect": 2944,
      "estern": 2945,
      "uted": 2946,
      "Ġrelative": 2947,
      "Ġproviding": 2948,
      "med": 2949,
      "Ġcompanies": 2950,
      "att": 2951,
      "Ġrequires": 2952,
      "ĠAddition": 2953,
      "mb": 2954,
      "ciples": 2955,
      "Ġmonths": 2956,
      "17": 2957,
      "ura": 2958,
      "Ġ/": 2959,
      "Ġhyd": 2960,
      "iring": 2961,
      "ĠOther": 2962,
      "Ġancient": 2963,
      "Ġdecision": 2964,
      "Ġexamples": 2965,
      "mber": 2966,
      "Ġtakes": 2967,
      "ĠDuring": 2968,
      "ĠChina": 2969,
      "ĠTrans": 2970,
      "Ġir": 2971,
      "inct": 2972,
      "Ġteachers": 2973,
      "Ġpatterns": 2974,
      "Ġthreat": 2975,
      "Ġdamage": 2976,
      "ding": 2977,
      "Ġfit": 2978,
      "Ġhtt": 2979,
      "artment": 2980,
      "Ġcontribute": 2981,
      "hens": 2982,
      "Ġrefer": 2983,
      "AT": 2984,
      "Wh": 2985,
      "ĠNe": 2986,
      "Ġinterp": 2987,
      "isms": 2988,
      "Ġdiagn": 2989,
      "rought": 2990,
      "ai": 2991,
      "Ġmap": 2992,
      "Ġlog": 2993,
      "Ġcompared": 2994,
      "ĠExam": 2995,
      "Ġliterature": 2996,
      "Ġincorpor": 2997,
      "head": 2998,
      "itect": 2999,
      "Ġevalu": 3000,
      "Ġlonger": 3001,
      "Ġapplications": 3002,
      "Ġefforts": 3003,
      "Ġstandard": 3004,
      "Ġfram": 3005,
      "Ġalmost": 3006,
      "Ġnormal": 3007,
      "Ġaff": 3008,
      "Ġwarm": 3009,
      "ana": 3010,
      "ĠSec": 3011,
      "ropriate": 3012,
      "Ġtypically": 3013,
      "Ġviol": 3014,
      "Ġfamilies": 3015,
      "St": 3016,
      "Ġcommit": 3017,
      "Ġindepend": 3018,
      "Ġnovel": 3019,
      "ĠArt": 3020,
      "Ġforce": 3021,
      "mon": 3022,
      "Ġnegative": 3023,
      "Ġsoftware": 3024,
      "ided": 3025,
      "Ġcele": 3026,
      "Ġdiv": 3027,
      "ĠEach": 3028,
      "Ġpowerful": 3029,
      "Ġcollabor": 3030,
      "Ġgain": 3031,
      "aff": 3032,
      "erson": 3033,
      "Ġpan": 3034,
      "rol": 3035,
      "Ġcover": 3036,
      "Ġfru": 3037,
      "ĠPres": 3038,
      "Ġcomponents": 3039,
      "Ġmagn": 3040,
      "Ġgas": 3041,
      "ades": 3042,
      "Ġschools": 3043,
      "Ġfasc": 3044,
      "Ġplat": 3045,
      "Ġ#": 3046,
      "Ġquite": 3047,
      "Ġtalk": 3048,
      "Ġquickly": 3049,
      "enge": 3050,
      "Ġcaused": 3051,
      "Ġfriend": 3052,
      "ĠBritish": 3053,
      "rag": 3054,
      "Ġelse": 3055,
      "Ġinternational": 3056,
      "Ġbur": 3057,
      "dom": 3058,
      "idge": 3059,
      "Ġcode": 3060,
      "Ġexce": 3061,
      "Ġwaste": 3062,
      "acters": 3063,
      "Ġcalcul": 3064,
      "ĠToday": 3065,
      "Ġveget": 3066,
      "AS": 3067,
      "ban": 3068,
      "Ġec": 3069,
      "Ġhealthcare": 3070,
      "Ġadditional": 3071,
      "inc": 3072,
      "itor": 3073,
      "Ġcommunic": 3074,
      "Ġpoll": 3075,
      "Ġanswer": 3076,
      "Ġcivil": 3077,
      "ĠUnderstanding": 3078,
      "pe": 3079,
      "Ġtotal": 3080,
      "oming": 3081,
      "ching": 3082,
      "ously": 3083,
      "Ġ198": 3084,
      "ields": 3085,
      "Ġinvestig": 3086,
      "Ġple": 3087,
      "istry": 3088,
      "Ġsil": 3089,
      "Ġchoose": 3090,
      "Ġpoints": 3091,
      "ength": 3092,
      "Ġprofessional": 3093,
      "Ġutil": 3094,
      "Ġadvant": 3095,
      "Ġdifferences": 3096,
      "Ġsignificantly": 3097,
      "ĠHave": 3098,
      "Ġfeeling": 3099,
      "Ġfoods": 3100,
      "Ġhar": 3101,
      "ĠTechn": 3102,
      "ĠAnother": 3103,
      "Ġsuccessful": 3104,
      "ĠAre": 3105,
      "Ġeasily": 3106,
      "term": 3107,
      "iece": 3108,
      "emporary": 3109,
      "Ġclin": 3110,
      "Ġcool": 3111,
      "ached": 3112,
      "ynam": 3113,
      "Ġintegr": 3114,
      "ĠSchool": 3115,
      "ĠAnt": 3116,
      "Ġnumbers": 3117,
      "Ġguide": 3118,
      "Ġeat": 3119,
      "Ġapplication": 3120,
      "ĠScience": 3121,
      "ift": 3122,
      "Ġessays": 3123,
      "Ġ##": 3124,
      "Ġwood": 3125,
      "Ġvit": 3126,
      "Ġbecomes": 3127,
      "Ġgenerally": 3128,
      "illing": 3129,
      "Ġ25": 3130,
      "ĠYork": 3131,
      "Ġcamp": 3132,
      "org": 3133,
      "oration": 3134,
      "ilos": 3135,
      "ops": 3136,
      "Ġperfect": 3137,
      "Ġtown": 3138,
      "Ġconvers": 3139,
      "Ġ50": 3140,
      "ĠUse": 3141,
      "iber": 3142,
      "iot": 3143,
      "Ġstage": 3144,
      "Ġtherefore": 3145,
      "Ġsupply": 3146,
      "oll": 3147,
      "ĠMin": 3148,
      "resh": 3149,
      "Ġearth": 3150,
      "Ġful": 3151,
      "rench": 3152,
      "oly": 3153,
      "Ġmovement": 3154,
      "Ġbeautiful": 3155,
      "Ġlack": 3156,
      "ricult": 3157,
      "Ġlate": 3158,
      "ipment": 3159,
      "roduction": 3160,
      "Ġcra": 3161,
      "Ġremains": 3162,
      "13": 3163,
      "uments": 3164,
      "Ġkids": 3165,
      "Ġscientific": 3166,
      "hol": 3167,
      "itable": 3168,
      "IS": 3169,
      "Ġspeed": 3170,
      "asons": 3171,
      "Ġdetermine": 3172,
      "ober": 3173,
      "Ġtree": 3174,
      "Ġadj": 3175,
      "Ġinstall": 3176,
      "Ġconcent": 3177,
      "Th": 3178,
      "Ġtur": 3179,
      "Ġmis": 3180,
      "uries": 3181,
      "Ġproced": 3182,
      "gar": 3183,
      "phas": 3184,
      "Ġdiscover": 3185,
      "Ġefficient": 3186,
      "ellow": 3187,
      "Ġidentity": 3188,
      "Ġbalance": 3189,
      "ĠEduc": 3190,
      "Ġearl": 3191,
      "ief": 3192,
      "Ġresponsible": 3193,
      "Ġvirt": 3194,
      "Ġrob": 3195,
      "Ġhalf": 3196,
      "itle": 3197,
      "Ġnavig": 3198,
      "Ġrich": 3199,
      "ulate": 3200,
      "Ġplaces": 3201,
      "Ġbehavi": 3202,
      "Ġlines": 3203,
      "ula": 3204,
      "Ġing": 3205,
      "ĠIndian": 3206,
      "Ġnetwork": 3207,
      "uth": 3208,
      "ĠSection": 3209,
      "ĠFurther": 3210,
      "Ġcontains": 3211,
      "Ġanimal": 3212,
      "ifically": 3213,
      "Ġteaching": 3214,
      "Ġprior": 3215,
      "Ġhous": 3216,
      "Ġcitiz": 3217,
      "Ġsection": 3218,
      "Ġincluded": 3219,
      "Ġstructures": 3220,
      "Ġcharacters": 3221,
      "Ġseries": 3222,
      "Ġisn": 3223,
      "equ": 3224,
      "Ġlarger": 3225,
      "Ġthoughts": 3226,
      "Ġuser": 3227,
      "Ġconcepts": 3228,
      "Ġeye": 3229,
      "ĠJohn": 3230,
      "na": 3231,
      "ĠTw": 3232,
      "Ġund": 3233,
      "Ġpolicy": 3234,
      "ĠState": 3235,
      "Ġtrying": 3236,
      "Ġestablish": 3237,
      "Ġexercise": 3238,
      "aly": 3239,
      "Ġnews": 3240,
      "Ġsett": 3241,
      "inated": 3242,
      "ervation": 3243,
      "Ġexplain": 3244,
      "Ġmention": 3245,
      "ounds": 3246,
      "25": 3247,
      "Ġaverage": 3248,
      "Ġactive": 3249,
      "Ġcarbon": 3250,
      "60": 3251,
      "Ġdiseases": 3252,
      "Ġstrugg": 3253,
      "ino": 3254,
      "Ġdark": 3255,
      "Ġanx": 3256,
      "rig": 3257,
      "nds": 3258,
      "Ġwa": 3259,
      "Ġstra": 3260,
      "abetes": 3261,
      "Ġplatform": 3262,
      "Ġgender": 3263,
      "Ġinsights": 3264,
      "Ġpurpose": 3265,
      "Ġusers": 3266,
      "rown": 3267,
      "Ġdemand": 3268,
      "Ġscientists": 3269,
      "Ġsix": 3270,
      "Ġcompre": 3271,
      "Ġroad": 3272,
      "Ġautom": 3273,
      "Ġmoment": 3274,
      "urt": 3275,
      "Ġrules": 3276,
      "Ġâ": 3277,
      "ĠDevelop": 3278,
      "Ġoptions": 3279,
      "Ġimages": 3280,
      "Ġregarding": 3281,
      "ibrary": 3282,
      "ĠFl": 3283,
      "Ġtrust": 3284,
      "Ġsolar": 3285,
      "Ġspirit": 3286,
      "Ġfavor": 3287,
      "Ġhot": 3288,
      "apan": 3289,
      "Ġextreme": 3290,
      "Ġsus": 3291,
      "Ġweb": 3292,
      "ĠEd": 3293,
      "Ġmachine": 3294,
      "ĠAdditionally": 3295,
      "'ve": 3296,
      "su": 3297,
      "Ġmix": 3298,
      "Ġprinciples": 3299,
      "Ġestablished": 3300,
      "Ġshared": 3301,
      "Ġlegal": 3302,
      "Ġcosts": 3303,
      "Ġprotein": 3304,
      "Ġlandsc": 3305,
      "overy": 3306,
      "ĠSw": 3307,
      "Ġdou": 3308,
      "Ġsoon": 3309,
      "inks": 3310,
      "Ġswe": 3311,
      "Ġfa": 3312,
      "Ġhor": 3313,
      "ĠEss": 3314,
      "ĠRead": 3315,
      "Ġarchitect": 3316,
      "ĠMon": 3317,
      "ĠOnce": 3318,
      "ĠGreat": 3319,
      "ĠKing": 3320,
      "Ġforest": 3321,
      "omet": 3322,
      "vey": 3323,
      "igenous": 3324,
      "Ġthr": 3325,
      "Ġsea": 3326,
      "Ġuseful": 3327,
      "Ġbreat": 3328,
      "Ġsearch": 3329,
      "Ġintellig": 3330,
      "Ġeyes": 3331,
      "load": 3332,
      "where": 3333,
      "Ġtrade": 3334,
      "Ġagree": 3335,
      "ĠEven": 3336,
      "Ġsecurity": 3337,
      "Ġrates": 3338,
      "ĠCanad": 3339,
      "Ġreligious": 3340,
      "ĠEuropean": 3341,
      "Ġdocument": 3342,
      "ĠBec": 3343,
      "Ġtopics": 3344,
      "Ġimmedi": 3345,
      "lation": 3346,
      "Ġmut": 3347,
      "alls": 3348,
      "Ġspeak": 3349,
      "Ġcry": 3350,
      "orders": 3351,
      "Ġtax": 3352,
      "itute": 3353,
      "Ġult": 3354,
      "ĠJew": 3355,
      "Ġactions": 3356,
      "Ġrefers": 3357,
      "Ġequal": 3358,
      "Ġdirectly": 3359,
      "ython": 3360,
      "Ġnarr": 3361,
      "rad": 3362,
      "Ġadapt": 3363,
      "encies": 3364,
      "Ġdang": 3365,
      "Ġhol": 3366,
      "Ġacad": 3367,
      "Ġattempt": 3368,
      "ĠAfrica": 3369,
      "Ġmiddle": 3370,
      "ĠAc": 3371,
      "right": 3372,
      "Ġcard": 3373,
      "Ġfile": 3374,
      "Ġmiss": 3375,
      "Ġappropriate": 3376,
      "Ġquant": 3377,
      "ype": 3378,
      "Ġago": 3379,
      "Ġobjects": 3380,
      "IN": 3381,
      "ister": 3382,
      "ĠWell": 3383,
      "Ġprojects": 3384,
      "ĠHum": 3385,
      "Ġdecre": 3386,
      "Ġallowing": 3387,
      "Ġvirus": 3388,
      "Ġbit": 3389,
      "Ġprint": 3390,
      "Ġfair": 3391,
      "Ġsituation": 3392,
      "ederal": 3393,
      "Ġemphas": 3394,
      "ĠChild": 3395,
      "Ġveh": 3396,
      ":**": 3397,
      "Ġmole": 3398,
      "Ġequipment": 3399,
      "Ġ``": 3400,
      "oes": 3401,
      "ĠEl": 3402,
      "Ġadop": 3403,
      "haps": 3404,
      "Ġitems": 3405,
      "vention": 3406,
      "Ġcarry": 3407,
      "Ġ###": 3408,
      "Ġdream": 3409,
      "Ġmemory": 3410,
      "Ġbelief": 3411,
      "Ġcolon": 3412,
      "Ġtrees": 3413,
      "Ġhost": 3414,
      "Ġserious": 3415,
      "Ġep": 3416,
      "Ġ197": 3417,
      "Ġhighly": 3418,
      "life": 3419,
      "wise": 3420,
      "inate": 3421,
      "Ġlearned": 3422,
      "Ġtopic": 3423,
      "Ġbab": 3424,
      "Ġconflic": 3425,
      "Ġproduced": 3426,
      "22": 3427,
      "Ġtend": 3428,
      "Ġreach": 3429,
      "ĠAfrican": 3430,
      "Ġdynam": 3431,
      "Ġconsequ": 3432,
      "Ġsolutions": 3433,
      "Ġconstruct": 3434,
      "bit": 3435,
      "Ġmag": 3436,
      "Ġthird": 3437,
      "Ġnumerous": 3438,
      "Ã¼": 3439,
      "Ġmount": 3440,
      "Ġrapid": 3441,
      "Ġfunctions": 3442,
      "lear": 3443,
      "ears": 3444,
      "Ġadded": 3445,
      "Ġgold": 3446,
      "Ġcontroll": 3447,
      "Ġbenefit": 3448,
      "Ġhy": 3449,
      "Ġmonth": 3450,
      "bl": 3451,
      "vest": 3452,
      "ald": 3453,
      "ĠWater": 3454,
      "Ġreported": 3455,
      "Ġproperty": 3456,
      "Ġprofession": 3457,
      "Ġbill": 3458,
      "Ġgoals": 3459,
      "Ġorganizations": 3460,
      "back": 3461,
      "ĠWill": 3462,
      "ĠChar": 3463,
      "uge": 3464,
      "Ġvia": 3465,
      "ondon": 3466,
      "Ġast": 3467,
      "Ġdisp": 3468,
      "Ġtechnologies": 3469,
      "time": 3470,
      "Ġfoot": 3471,
      "Ġreality": 3472,
      "Ġblock": 3473,
      "Ġaccur": 3474,
      "Ġfast": 3475,
      "ĠThen": 3476,
      "Ġgraph": 3477,
      "Ġminutes": 3478,
      "oud": 3479,
      "Ġconclusion": 3480,
      "iers": 3481,
      "Ġbound": 3482,
      "ica": 3483,
      "Ġgot": 3484,
      "Ġchallenge": 3485,
      "Ġ```": 3486,
      "itis": 3487,
      "Ġbase": 3488,
      "Ġforward": 3489,
      "ĠSince": 3490,
      "comes": 3491,
      "Ġtherapy": 3492,
      "Ġbrought": 3493,
      "Ġscen": 3494,
      "Ġweather": 3495,
      "ĠExpl": 3496,
      "Ġseems": 3497,
      "Ġstyle": 3498,
      "Ġroom": 3499,
      "Ġmodels": 3500,
      "Ġlimited": 3501,
      "Ġthus": 3502,
      "Ġlabor": 3503,
      "Ġcentral": 3504,
      "Ġemotional": 3505,
      "ĠTheir": 3506,
      "ĠHer": 3507,
      "Ġ24": 3508,
      "Ġpoor": 3509,
      "Ġconstant": 3510,
      "ius": 3511,
      "Ġdat": 3512,
      "Ġang": 3513,
      "Ġleaves": 3514,
      "Ġsaw": 3515,
      "Ġproperties": 3516,
      "Ġded": 3517,
      "Ġdry": 3518,
      "Ġrespond": 3519,
      "Ġprobably": 3520,
      "water": 3521,
      "ĠÎ": 3522,
      "Ġsqu": 3523,
      "Ġfront": 3524,
      "Ġhope": 3525,
      "Ġadvent": 3526,
      "Ġpromote": 3527,
      "Ġconcerns": 3528,
      "Ġhands": 3529,
      "Ġnote": 3530,
      "Ġadminist": 3531,
      "wide": 3532,
      "à¤": 3533,
      "Ġlesson": 3534,
      "Ġtri": 3535,
      "leg": 3536,
      "ĠJes": 3537,
      "Ġdecisions": 3538,
      "ĠCommun": 3539,
      "Ġnamed": 3540,
      "Ġdevice": 3541,
      "cean": 3542,
      "Ġgoal": 3543,
      "Ġorganization": 3544,
      "Ġserve": 3545,
      "lin": 3546,
      "Ġsold": 3547,
      "ĠJapan": 3548,
      "Ġeffectively": 3549,
      "Ġcelebr": 3550,
      "Ġvo": 3551,
      "cks": 3552,
      "ĠAlso": 3553,
      "book": 3554,
      "ĠMod": 3555,
      "ĠGo": 3556,
      "ager": 3557,
      "Ġanything": 3558,
      "Ġcapac": 3559,
      "Ġlost": 3560,
      "Ġsevere": 3561,
      "Ġconnections": 3562,
      "Ġsample": 3563,
      "ners": 3564,
      "Ġlo": 3565,
      "Ġjud": 3566,
      "iny": 3567,
      "Ġsal": 3568,
      "idents": 3569,
      "Ġexposure": 3570,
      "Ġtour": 3571,
      "ests": 3572,
      "ĠRet": 3573,
      "ĠJu": 3574,
      "Ġlocated": 3575,
      "uff": 3576,
      "ĠSur": 3577,
      "ĠRed": 3578,
      "erences": 3579,
      "Ġfeet": 3580,
      "IT": 3581,
      "mission": 3582,
      "Ġ:": 3583,
      "Ġcateg": 3584,
      "ocks": 3585,
      "rie": 3586,
      "Ġeconomy": 3587,
      "rition": 3588,
      "ourse": 3589,
      "Ġillustr": 3590,
      "ĠChristian": 3591,
      "Ġexactly": 3592,
      "vert": 3593,
      "irm": 3594,
      "Ġwhose": 3595,
      "Ġprivate": 3596,
      "omy": 3597,
      "Ġwebsite": 3598,
      "eper": 3599,
      "ora": 3600,
      "Ġfresh": 3601,
      "Ġder": 3602,
      "omp": 3603,
      "Ġcontemporary": 3604,
      "Ġ40": 3605,
      "zz": 3606,
      "Ġpen": 3607,
      "aste": 3608,
      "Ġaffected": 3609,
      "ĠHistory": 3610,
      "Ġdiscovered": 3611,
      "iter": 3612,
      "Ġsolution": 3613,
      "Ġbeginning": 3614,
      "Ġthous": 3615,
      "Ġiniti": 3616,
      "ON": 3617,
      "cles": 3618,
      "Ġcomfort": 3619,
      "apers": 3620,
      "Ġincl": 3621,
      "inese": 3622,
      "Ġdetect": 3623,
      "rogen": 3624,
      "ords": 3625,
      "ĠMoreover": 3626,
      "Ġlength": 3627,
      "ĠWrit": 3628,
      "efore": 3629,
      "ĠSystem": 3630,
      "iles": 3631,
      "Ġnation": 3632,
      "ĠDes": 3633,
      "Ġrock": 3634,
      "Ġbox": 3635,
      "Ġensuring": 3636,
      "........": 3637,
      "Ġfascinating": 3638,
      "Ġstri": 3639,
      "ĠInter": 3640,
      "\".": 3641,
      "ĠFrench": 3642,
      "Ġcompar": 3643,
      "eces": 3644,
      "ception": 3645,
      "ĠPeople": 3646,
      "23": 3647,
      "Ġpiece": 3648,
      "Ġfelt": 3649,
      "Ġexpand": 3650,
      "Ġelectr": 3651,
      "Ġmoving": 3652,
      "ancy": 3653,
      "ĠSm": 3654,
      "amb": 3655,
      "Ġsharing": 3656,
      "Ġopportunity": 3657,
      "Ġbacteria": 3658,
      "Ġdivers": 3659,
      "Ġcitizens": 3660,
      "Ġdim": 3661,
      "ĠMus": 3662,
      "ription": 3663,
      "Ġobtain": 3664,
      "Ġreducing": 3665,
      "Ġrelevant": 3666,
      "Ġasked": 3667,
      "Ġsociet": 3668,
      "Ġdepression": 3669,
      "Ġpredict": 3670,
      "Ġmother": 3671,
      "ĠJan": 3672,
      "Ġestim": 3673,
      "Ġdoctor": 3674,
      "OR": 3675,
      "Ġbad": 3676,
      "ilit": 3677,
      "Ġheld": 3678,
      "Ġbackground": 3679,
      "Ġeducational": 3680,
      "Ġreceive": 3681,
      "aught": 3682,
      "Ġcam": 3683,
      "Ġteach": 3684,
      "Ġsurrounding": 3685,
      "bor": 3686,
      "Ġwatch": 3687,
      "Ġeating": 3688,
      "Ġcou": 3689,
      "rief": 3690,
      "estic": 3691,
      "irection": 3692,
      "Ġmeasures": 3693,
      "Ġking": 3694,
      "Ġroot": 3695,
      "Ġattack": 3696,
      "mat": 3697,
      "Ġwr": 3698,
      "isc": 3699,
      "Ġsigns": 3700,
      "Ġpolicies": 3701,
      "Ġphilos": 3702,
      "Ġattract": 3703,
      "Ġmilitary": 3704,
      "Ġoutcomes": 3705,
      "Ġassign": 3706,
      "Ġfeelings": 3707,
      "Ġinvolve": 3708,
      "Ġteacher": 3709,
      "ĠInc": 3710,
      "Ġexpert": 3711,
      "Ġelement": 3712,
      "Ġlaws": 3713,
      "40": 3714,
      "fl": 3715,
      "Ġshall": 3716,
      "AN": 3717,
      "ingu": 3718,
      "Ġfinal": 3719,
      "Ġplans": 3720,
      "cohol": 3721,
      "elines": 3722,
      "abilities": 3723,
      "Ġhabit": 3724,
      "ĠRemember": 3725,
      "Ġwent": 3726,
      "Ġheard": 3727,
      "Ġplanet": 3728,
      "Ġargument": 3729,
      "Ġchoice": 3730,
      "Ġfight": 3731,
      "Ġhon": 3732,
      "Ġadults": 3733,
      "ĠFurthermore": 3734,
      "Ġord": 3735,
      "Ġcoming": 3736,
      "Ġfeature": 3737,
      "Ġrequirements": 3738,
      "Ġcollege": 3739,
      "rick": 3740,
      "Ġcapital": 3741,
      "Ġfreed": 3742,
      "going": 3743,
      "uk": 3744,
      "orage": 3745,
      "Ġinfection": 3746,
      "Ġlargest": 3747,
      "airs": 3748,
      "Ġreasons": 3749,
      "ĠSee": 3750,
      "Ġdesp": 3751,
      "Ġdepend": 3752,
      "axim": 3753,
      "Ġconnection": 3754,
      "Ġinteresting": 3755,
      "Ġstandards": 3756,
      "Ġreceived": 3757,
      "Ġreaders": 3758,
      "Ġenhance": 3759,
      "ira": 3760,
      "isation": 3761,
      "ĠAut": 3762,
      "ulated": 3763,
      "ĠLondon": 3764,
      "Ġcontract": 3765,
      "Ġcommer": 3766,
      "Ġpurch": 3767,
      "rees": 3768,
      "Ġvital": 3769,
      "Ġmaster": 3770,
      "agog": 3771,
      "Ġevol": 3772,
      "Ġgarden": 3773,
      "ĠJesus": 3774,
      "eal": 3775,
      "Ġphen": 3776,
      "Ġcommonly": 3777,
      "Ġrisks": 3778,
      "Ġnutri": 3779,
      "Ġpicture": 3780,
      "Ġegg": 3781,
      "pper": 3782,
      "ĠDay": 3783,
      "Ġinstruct": 3784,
      "Ġdetails": 3785,
      "ares": 3786,
      "ĠRuss": 3787,
      "ĠChinese": 3788,
      "ses": 3789,
      "Ġplays": 3790,
      "Ġearlier": 3791,
      "athy": 3792,
      "Ġpoly": 3793,
      "ĠStudents": 3794,
      "IC": 3795,
      "ĠChe": 3796,
      "iliar": 3797,
      "Ġpet": 3798,
      "Ġdistinct": 3799,
      "Ġprotection": 3800,
      "ieces": 3801,
      "Ġacqu": 3802,
      "Ġsetting": 3803,
      "Ġice": 3804,
      "Ġtou": 3805,
      "Ġdisplay": 3806,
      "rupt": 3807,
      "set": 3808,
      "Ġdeeper": 3809,
      "Ġvict": 3810,
      "ĠRel": 3811,
      "Ġimag": 3812,
      "Ġanxiety": 3813,
      "Ġnothing": 3814,
      "Ġmanage": 3815,
      "Ġreduced": 3816,
      "SD": 3817,
      "Ġgives": 3818,
      "udd": 3819,
      "Ġfamous": 3820,
      "Ġseason": 3821,
      "Ġtests": 3822,
      "Ġpul": 3823,
      "unction": 3824,
      "Ġpeace": 3825,
      "Ġdiabetes": 3826,
      "Ġpp": 3827,
      "cipl": 3828,
      "Ġsn": 3829,
      "urance": 3830,
      "Ġalg": 3831,
      "used": 3832,
      "Ġassist": 3833,
      "Ġalternative": 3834,
      "ĠCur": 3835,
      "ĠBr": 3836,
      "Ġrise": 3837,
      "Ġeffort": 3838,
      "Ġweeks": 3839,
      "uary": 3840,
      "Ġcred": 3841,
      "Ġdegree": 3842,
      "Ġimagine": 3843,
      "Ġlocation": 3844,
      "Ġplanning": 3845,
      "www": 3846,
      "bal": 3847,
      "anc": 3848,
      "issions": 3849,
      "Ġlessons": 3850,
      "Ġeasier": 3851,
      "being": 3852,
      "Ġcharacteristics": 3853,
      "Ġtable": 3854,
      "Ġpow": 3855,
      "Ġsugar": 3856,
      "Ġfollowed": 3857,
      "Ġapplied": 3858,
      "Ġrat": 3859,
      "Ġgradu": 3860,
      "Ġstrength": 3861,
      "VID": 3862,
      "anish": 3863,
      "elcome": 3864,
      "works": 3865,
      "Ġflex": 3866,
      "Ġalthough": 3867,
      "hemat": 3868,
      "ester": 3869,
      "Ġadjust": 3870,
      "Ġsouth": 3871,
      "encing": 3872,
      "igr": 3873,
      "Ġworth": 3874,
      "Ġqual": 3875,
      "strial": 3876,
      "ĠEducation": 3877,
      "It": 3878,
      "iance": 3879,
      "ĠEvery": 3880,
      "ogen": 3881,
      "Ġcontrast": 3882,
      "Ġagricult": 3883,
      "Ġofficial": 3884,
      "plications": 3885,
      "related": 3886,
      "board": 3887,
      "Ġgames": 3888,
      "ĠTherefore": 3889,
      "Ġbusinesses": 3890,
      "Ġparticipants": 3891,
      "Ġexpected": 3892,
      "iable": 3893,
      "Ġexch": 3894,
      "iveness": 3895,
      "Ġbodies": 3896,
      "Ġenter": 3897,
      "ensity": 3898,
      "Ġadvanced": 3899,
      "tical": 3900,
      "Ġmath": 3901,
      "ĠBefore": 3902,
      "ĠDef": 3903,
      "ĠOb": 3904,
      "Ġrain": 3905,
      "Ġspecifically": 3906,
      "Ġbran": 3907,
      "Ġorigin": 3908,
      "sect": 3909,
      "Ġrare": 3910,
      "Ġsmaller": 3911,
      "Ġdidn": 3912,
      "ĠCount": 3913,
      "Ġcontinued": 3914,
      "ĠUsing": 3915,
      "ees": 3916,
      "reet": 3917,
      "Ġhosp": 3918,
      "ĠDon": 3919,
      "Ġbelong": 3920,
      "Ġcomprehens": 3921,
      "hors": 3922,
      "Ġcore": 3923,
      "Ġcrop": 3924,
      "Ġrecommend": 3925,
      "ĠBecause": 3926,
      "iding": 3927,
      "ĠBlack": 3928,
      "Ġtasks": 3929,
      "Ġsustainable": 3930,
      "iology": 3931,
      "Ġmid": 3932,
      "Ġmob": 3933,
      "ĠDec": 3934,
      "Ġrot": 3935,
      "Ġdecl": 3936,
      "aul": 3937,
      "gy": 3938,
      "Ġmember": 3939,
      "Ġengage": 3940,
      "ifying": 3941,
      "Ġanti": 3942,
      "Ġchallenging": 3943,
      "Ġjournal": 3944,
      "Ġleave": 3945,
      "Ġtrial": 3946,
      "Ġremind": 3947,
      "Ġadvance": 3948,
      "Ġolder": 3949,
      "pre": 3950,
      "Ġtiss": 3951,
      "Ġschol": 3952,
      "Ġweak": 3953,
      "ĠVir": 3954,
      "Ġcultures": 3955,
      "Ġimmune": 3956,
      "Ġforces": 3957,
      "Ġdepending": 3958,
      "Ġemotions": 3959,
      "ĠHar": 3960,
      "ĠOff": 3961,
      "Ġstatus": 3962,
      "Ġwoman": 3963,
      "Ġbecoming": 3964,
      "ĠProg": 3965,
      "Ġcogn": 3966,
      "mental": 3967,
      "Ġdeal": 3968,
      "ĠDi": 3969,
      "Ġinstru": 3970,
      "nect": 3971,
      "ought": 3972,
      "Ġcenter": 3973,
      "eech": 3974,
      "ĠFinally": 3975,
      "uild": 3976,
      "Ġsequ": 3977,
      "Ġbed": 3978,
      "Ġexisting": 3979,
      "Ġclinical": 3980,
      "attle": 3981,
      "Ġrepl": 3982,
      "Ġnuc": 3983,
      "ĠAI": 3984,
      "Ġbond": 3985,
      "ceed": 3986,
      "Ġresistance": 3987,
      "Ġsyn": 3988,
      "ĠSpec": 3989,
      "ĠCenter": 3990,
      "Ġfilled": 3991,
      "Ġmaxim": 3992,
      "force": 3993,
      "Ġhyp": 3994,
      "usive": 3995,
      "Ġprepar": 3996,
      "Ġlimit": 3997,
      "itch": 3998,
      "Ġworkers": 3999,
      "undred": 4000,
      "Ġapproaches": 4001,
      "**:": 4002,
      "ĠBra": 4003,
      "Ġgoes": 4004,
      "Ġregions": 4005,
      "Ġsuppl": 4006,
      "OS": 4007,
      "Ġten": 4008,
      "Ġcand": 4009,
      "Ġfields": 4010,
      "resp": 4011,
      "Ġapply": 4012,
      "Ġsolid": 4013,
      "Ġdescribed": 4014,
      "Ġinitial": 4015,
      "Ġdirection": 4016,
      "ament": 4017,
      "Ġassum": 4018,
      "Ġsituations": 4019,
      "Ġreligion": 4020,
      "rm": 4021,
      "ĠMc": 4022,
      "Ġcolors": 4023,
      "Ġfactor": 4024,
      "Ġchanging": 4025,
      "Ġlived": 4026,
      "odes": 4027,
      "Ġkid": 4028,
      "Ġprefer": 4029,
      "Ġapprox": 4030,
      "Ġacademic": 4031,
      "ET": 4032,
      "ĠSol": 4033,
      "Ġalone": 4034,
      "ĠThus": 4035,
      "Ġemail": 4036,
      "Ġtechnique": 4037,
      "Ġfindings": 4038,
      "'m": 4039,
      "Ġball": 4040,
      "Ġnorth": 4041,
      "ĠCity": 4042,
      "ĠRef": 4043,
      "Ġfinding": 4044,
      "Ġcollection": 4045,
      "Ġsexual": 4046,
      "known": 4047,
      "enth": 4048,
      "Ġneigh": 4049,
      "ĠAmericans": 4050,
      "Ġconnected": 4051,
      "Ġmaintaining": 4052,
      "orial": 4053,
      "ĠAv": 4054,
      "ĠBar": 4055,
      "Ġoxy": 4056,
      "Ġcapacity": 4057,
      "que": 4058,
      "Ġsignificance": 4059,
      "Ġprinc": 4060,
      "________________": 4061,
      "Ġtask": 4062,
      "Ġmentioned": 4063,
      "ĠPark": 4064,
      "anging": 4065,
      "ternal": 4066,
      "Ġdecided": 4067,
      "espite": 4068,
      "Ġwonder": 4069,
      "Ġawareness": 4070,
      "Ġpromoting": 4071,
      "lands": 4072,
      "ĠApr": 4073,
      "raction": 4074,
      "Ġ21": 4075,
      "ĠIntroduction": 4076,
      "hab": 4077,
      "ĠPat": 4078,
      "ĠEv": 4079,
      "âĢĿ.": 4080,
      "Ġcold": 4081,
      "Ġtransfer": 4082,
      "Ġready": 4083,
      "useum": 4084,
      "Ġabsor": 4085,
      "Ġden": 4086,
      "Ġrough": 4087,
      "Ġ2017": 4088,
      "Ġefficiency": 4089,
      "Ġstatement": 4090,
      "Ġsites": 4091,
      "Ġfocused": 4092,
      "ĠCOVID": 4093,
      "Ġingred": 4094,
      "Ġdespite": 4095,
      "Ġcompl": 4096,
      "Ġdistance": 4097,
      "Ġconstruction": 4098,
      "Ġdistribution": 4099,
      "zing": 4100,
      "ĠSun": 4101,
      "Ġ2018": 4102,
      "Ġcurrently": 4103,
      "Ġsounds": 4104,
      "ued": 4105,
      "Ġfix": 4106,
      "Ġdate": 4107,
      "Ġdivid": 4108,
      "Ġrule": 4109,
      "Ġtesting": 4110,
      "Ġfemale": 4111,
      "Ġexcess": 4112,
      "Ġ-----------------": 4113,
      "Ġrecently": 4114,
      "Ġdiscussion": 4115,
      "Ġprofessionals": 4116,
      "Ġpages": 4117,
      "Ġgiving": 4118,
      "formation": 4119,
      "ishing": 4120,
      "Ġgenetic": 4121,
      "Ġgrass": 4122,
      "ĠGreek": 4123,
      "Ġoccurs": 4124,
      "Ġobserved": 4125,
      "ĠHigh": 4126,
      "asts": 4127,
      "ĠIts": 4128,
      "Ġexperienced": 4129,
      "ĠProf": 4130,
      "Ġdefined": 4131,
      "Ġnearby": 4132,
      "ogle": 4133,
      "ĠWest": 4134,
      "Ġactual": 4135,
      "oe": 4136,
      "ĠÃ": 4137,
      "Ġdive": 4138,
      "ĠAug": 4139,
      "ĠMake": 4140,
      "ĠLaw": 4141,
      "Ġspect": 4142,
      "Ġhappens": 4143,
      "Ġcommercial": 4144,
      "Ġwon": 4145,
      "ĠTest": 4146,
      "sec": 4147,
      "Ġcompletely": 4148,
      "Ġevolution": 4149,
      "Ġscale": 4150,
      "Ġrepresents": 4151,
      "Ġencourage": 4152,
      "che": 4153,
      "ara": 4154,
      "arian": 4155,
      "Ġonto": 4156,
      "cil": 4157,
      "Ġfather": 4158,
      "enty": 4159,
      "Ġneu": 4160,
      "ĠLess": 4161,
      "Ġclassroom": 4162,
      "Ġmuscle": 4163,
      "ĠPlan": 4164,
      "ĠDisc": 4165,
      "Ġsong": 4166,
      "icip": 4167,
      "Ġhair": 4168,
      "Ġstarting": 4169,
      "Ġpossib": 4170,
      "Ġtim": 4171,
      "emy": 4172,
      "ocol": 4173,
      "Ġplaying": 4174,
      "Ġcausing": 4175,
      "Ġfigure": 4176,
      "Ġreveal": 4177,
      "Ġintelligence": 4178,
      "ĠÐ": 4179,
      "Ġengaging": 4180,
      "Ġrunning": 4181,
      "ky": 4182,
      "Ġgir": 4183,
      "ĠDespite": 4184,
      "Ġunf": 4185,
      "ĠArch": 4186,
      "Ġembra": 4187,
      "Ġelectricity": 4188,
      "ĠPower": 4189,
      "Ġplot": 4190,
      "part": 4191,
      "Ġpieces": 4192,
      "ĠMarch": 4193,
      "itutions": 4194,
      "Ġstorage": 4195,
      "Ġpractical": 4196,
      "Ġheavy": 4197,
      "ĠOct": 4198,
      "Ġoutput": 4199,
      "Ġhelping": 4200,
      "Ġsave": 4201,
      "Ġresulting": 4202,
      "Ġillness": 4203,
      "Chapter": 4204,
      "mosp": 4205,
      "ero": 4206,
      "ĠBob": 4207,
      "ĠUK": 4208,
      "Ġincreases": 4209,
      "ĠInternational": 4210,
      "ĠSam": 4211,
      "outhern": 4212,
      "Ġacid": 4213,
      "Ġoperations": 4214,
      "Ġmiles": 4215,
      "Ġtold": 4216,
      "roll": 4217,
      "Ġhundred": 4218,
      "see": 4219,
      "Ġexec": 4220,
      "Ġhappened": 4221,
      "Ġfacilit": 4222,
      "Ġcities": 4223,
      "Ġfert": 4224,
      "Ġbeg": 4225,
      "Ġchance": 4226,
      "Ġincome": 4227,
      "Ġresource": 4228,
      "ĠKeep": 4229,
      "Ġexcell": 4230,
      "bre": 4231,
      "semb": 4232,
      "ĠAir": 4233,
      "Ġfrequently": 4234,
      "We": 4235,
      "Ġfuel": 4236,
      "Ġinput": 4237,
      "Ġlat": 4238,
      "Ġvary": 4239,
      "ĠFig": 4240,
      "Ġupd": 4241,
      "Ġsurpr": 4242,
      "Ġnearly": 4243,
      "Ġpip": 4244,
      "Ġstore": 4245,
      "ĠCor": 4246,
      "Ġexperiment": 4247,
      "ĠSocial": 4248,
      "Ġwid": 4249,
      "Ġchronic": 4250,
      "Ġclos": 4251,
      "Ġstrategy": 4252,
      "ĠSept": 4253,
      "ĠInstead": 4254,
      "hetic": 4255,
      "ĠDepartment": 4256,
      "sis": 4257,
      "Ġbul": 4258,
      "ocr": 4259,
      "ĠLat": 4260,
      "Ġoccup": 4261,
      "Ġexhib": 4262,
      "ĠPress": 4263,
      "ightly": 4264,
      "orith": 4265,
      "ĠPract": 4266,
      "ube": 4267,
      "Ġstudying": 4268,
      "Ġurban": 4269,
      "Ġ2014": 4270,
      "Ġhimself": 4271,
      "Ġbott": 4272,
      "ulum": 4273,
      "key": 4274,
      "Ġexamine": 4275,
      "Ġbasis": 4276,
      "'d": 4277,
      "Ġ194": 4278,
      "Ġleaders": 4279,
      "Ġfacts": 4280,
      "iced": 4281,
      "ĠHel": 4282,
      "rome": 4283,
      "Ġanyone": 4284,
      "Ġwalk": 4285,
      "lam": 4286,
      "uit": 4287,
      "Ġmotiv": 4288,
      "EN": 4289,
      "year": 4290,
      "lev": 4291,
      "rote": 4292,
      "Ġunivers": 4293,
      "Ġappears": 4294,
      "aid": 4295,
      "Ġhear": 4296,
      "orthern": 4297,
      "Ġcreation": 4298,
      "Ġauthors": 4299,
      "Ġenvironments": 4300,
      "overn": 4301,
      "iant": 4302,
      "xic": 4303,
      "char": 4304,
      "Ġmetal": 4305,
      "Ġcycle": 4306,
      "ĠKey": 4307,
      "Ġengineering": 4308,
      "Ġborn": 4309,
      "Ġdial": 4310,
      "ĠEngland": 4311,
      "Ġpreserv": 4312,
      "wards": 4313,
      "Ġgoods": 4314,
      "Ġpassed": 4315,
      "Ġfully": 4316,
      "edia": 4317,
      "Ġload": 4318,
      "Ġ--": 4319,
      "ĠConclusion": 4320,
      "Ġboard": 4321,
      ");": 4322,
      "Ġseek": 4323,
      "Ġhappen": 4324,
      "Ġinvestment": 4325,
      "Ġopin": 4326,
      "ĠGerman": 4327,
      "Ġalcohol": 4328,
      "Ġletter": 4329,
      "Ġvirtual": 4330,
      "Ġdiversity": 4331,
      "Ġfear": 4332,
      "Ġhom": 4333,
      "Ġpref": 4334,
      "Ġchanged": 4335,
      "Ġforeign": 4336,
      "Ġwrong": 4337,
      "Ġtrack": 4338,
      "Ġcoast": 4339,
      "Ġ2016": 4340,
      "Ġsmooth": 4341,
      "Ġaid": 4342,
      "Ġpick": 4343,
      "ĠSub": 4344,
      "ĠServ": 4345,
      "antic": 4346,
      "ĠNet": 4347,
      "Ġplastic": 4348,
      "Ġworked": 4349,
      "Ġwanted": 4350,
      "ĠHuman": 4351,
      "ka": 4352,
      "met": 4353,
      "ĠTH": 4354,
      "Ġworry": 4355,
      "Ġcreative": 4356,
      "Ġfilm": 4357,
      "Ġinterpret": 4358,
      "Ġnative": 4359,
      "urally": 4360,
      "Ġvaccine": 4361,
      "Ġdogs": 4362,
      "Ġseparate": 4363,
      "off": 4364,
      "ĠTime": 4365,
      "Ġdead": 4366,
      "ĠLearning": 4367,
      "ĠJour": 4368,
      "azing": 4369,
      "iverse": 4370,
      "ĠClass": 4371,
      "Ġincreasingly": 4372,
      "Ġcounter": 4373,
      "IV": 4374,
      "ded": 4375,
      "pen": 4376,
      "ping": 4377,
      "ĠSom": 4378,
      "Ġexcept": 4379,
      "Ġsynt": 4380,
      "ructure": 4381,
      "Ġ60": 4382,
      "Ġnutrition": 4383,
      "Ġmo": 4384,
      "Ġ23": 4385,
      "ĠGet": 4386,
      "Ġgrade": 4387,
      "Ġvolunt": 4388,
      "Ġcircum": 4389,
      "Ġfaith": 4390,
      "Ġfreedom": 4391,
      "ĠApril": 4392,
      "onic": 4393,
      "Ġparty": 4394,
      "Ġantib": 4395,
      "Ġsummer": 4396,
      "rete": 4397,
      "Ġpun": 4398,
      "Ġdra": 4399,
      "Ġhorm": 4400,
      "Ġseven": 4401,
      "Ġ22": 4402,
      "ibl": 4403,
      "rows": 4404,
      "Ġsignal": 4405,
      "Ġartists": 4406,
      "Ġorganic": 4407,
      "Ġparam": 4408,
      "ĠInternet": 4409,
      "ev": 4410,
      "ophy": 4411,
      "ĠAustralia": 4412,
      "Ġconsequences": 4413,
      "Ġiron": 4414,
      "Ġthemes": 4415,
      "Ġ196": 4416,
      "Ġsmart": 4417,
      "Ġrecords": 4418,
      "Ġfavorite": 4419,
      "Ġplaced": 4420,
      "Ġbuy": 4421,
      "Ġformed": 4422,
      "AC": 4423,
      "Ġfr": 4424,
      "Ġblue": 4425,
      "Ġjustice": 4426,
      "mitted": 4427,
      "Ġmessage": 4428,
      "ĠJuly": 4429,
      "ED": 4430,
      "Ġpu": 4431,
      "ico": 4432,
      "Ġstaff": 4433,
      "Ġpossess": 4434,
      "Ġimproved": 4435,
      "ham": 4436,
      "heets": 4437,
      "amental": 4438,
      "ĠDav": 4439,
      "ĠOm": 4440,
      "Ġshowed": 4441,
      "Ġbelieved": 4442,
      "Ġmanufacture": 4443,
      "Ġbaby": 4444,
      "zy": 4445,
      "Ġcere": 4446,
      "iest": 4447,
      "ĠAsia": 4448,
      "Ġworldwide": 4449,
      "Ġprocessing": 4450,
      "gery": 4451,
      "Ġlandscape": 4452,
      "ĠCanada": 4453,
      "bra": 4454,
      "ĠEast": 4455,
      "Ġkeeping": 4456,
      "Ġoperating": 4457,
      "Ġinternal": 4458,
      "Ġturned": 4459,
      "Ġbirds": 4460,
      "Ġunits": 4461,
      "Ġreports": 4462,
      "vious": 4463,
      "Ġmouth": 4464,
      "ĠWhe": 4465,
      "Ġvill": 4466,
      "Ġju": 4467,
      "Ġroles": 4468,
      "Ġ2020": 4469,
      "Ġcareer": 4470,
      "Ġpopulations": 4471,
      "ĠBas": 4472,
      "ressive": 4473,
      "Ġhighlight": 4474,
      "Ġformation": 4475,
      "Ġmonit": 4476,
      "Ġallowed": 4477,
      "ashing": 4478,
      "Ġintroduction": 4479,
      "Ġbirth": 4480,
      "80": 4481,
      "Ġcook": 4482,
      "Ġfederal": 4483,
      "Ġspeech": 4484,
      "Ġtips": 4485,
      "Ġrace": 4486,
      "Ġsubjects": 4487,
      "Ġthousands": 4488,
      "ĠWestern": 4489,
      "Ġidentified": 4490,
      "Ġrelatively": 4491,
      "ĠEssay": 4492,
      "Ġphenomen": 4493,
      "Ġvast": 4494,
      "ypes": 4495,
      "ĠProt": 4496,
      "ĠSupp": 4497,
      "othes": 4498,
      "Ġongoing": 4499,
      "Ġvul": 4500,
      "Ġperhaps": 4501,
      "ensions": 4502,
      "ĠFam": 4503,
      "Ġallerg": 4504,
      "Ġteeth": 4505,
      "Ġcontinues": 4506,
      "Ġversion": 4507,
      "II": 4508,
      "la": 4509,
      "aint": 4510,
      "Ġresponsibility": 4511,
      "Ġoxygen": 4512,
      "mark": 4513,
      "reed": 4514,
      "alle": 4515,
      "pected": 4516,
      "Ġseeking": 4517,
      "Ġcarried": 4518,
      "Ġindustrial": 4519,
      "Ġchoices": 4520,
      "ĠSimilar": 4521,
      "lim": 4522,
      "Ġmist": 4523,
      "ented": 4524,
      "ĠId": 4525,
      "ags": 4526,
      "Ġprice": 4527,
      "ĠWilliam": 4528,
      "lor": 4529,
      "icy": 4530,
      "Ġhuge": 4531,
      "ffic": 4532,
      "Ġdisorder": 4533,
      "Ġtex": 4534,
      "ĠAlex": 4535,
      "eline": 4536,
      "izagog": 4537,
      "Ġdisorders": 4538,
      "Ġhelped": 4539,
      "ĠVol": 4540,
      "Ġinstitutions": 4541,
      "Ġpresence": 4542,
      "Ġpresented": 4543,
      "ĠInstitute": 4544,
      "Ġperspective": 4545,
      "Ġalgorith": 4546,
      "cript": 4547,
      "Ġstream": 4548,
      "agraph": 4549,
      "ĠRev": 4550,
      "Ġinterests": 4551,
      "Ġimmediately": 4552,
      "cking": 4553,
      "itage": 4554,
      "ĠBoth": 4555,
      "Ġchurch": 4556,
      "Ġrepe": 4557,
      "Ġsuggests": 4558,
      "ĠAssoci": 4559,
      "ĠTur": 4560,
      "Ġstim": 4561,
      "ĠBen": 4562,
      "Ġatmosp": 4563,
      "ĠEnviron": 4564,
      "Ġeight": 4565,
      "uting": 4566,
      "ĠOrgan": 4567,
      "Ġprimarily": 4568,
      "Ġdrugs": 4569,
      "Ġdefinition": 4570,
      "Ġviolence": 4571,
      "Ġadvantage": 4572,
      "gra": 4573,
      "roy": 4574,
      "ĠAng": 4575,
      "Ġscreen": 4576,
      "Ġtransl": 4577,
      "Ġcultiv": 4578,
      "Ġmathemat": 4579,
      "isp": 4580,
      "ĠPort": 4581,
      "Ġheight": 4582,
      "Ġourselves": 4583,
      "Ġplayed": 4584,
      "Ġbreast": 4585,
      "This": 4586,
      "respond": 4587,
      "70": 4588,
      "cular": 4589,
      "urg": 4590,
      "Ġincred": 4591,
      "Ġdrawing": 4592,
      "Ġbatter": 4593,
      "Ġelim": 4594,
      "Ġconsumption": 4595,
      "What": 4596,
      "Ġaccurate": 4597,
      "Ġmas": 4598,
      "icated": 4599,
      "ama": 4600,
      "riage": 4601,
      "Ġinfl": 4602,
      "ĠAdd": 4603,
      "Ġfine": 4604,
      "Ġrein": 4605,
      "Ġexperim": 4606,
      "Ġmulti": 4607,
      "Ġlayer": 4608,
      "Ġbeauty": 4609,
      "Ġeventually": 4610,
      "ĠSecond": 4611,
      "Ġfruit": 4612,
      "Ġstraight": 4613,
      "AL": 4614,
      "ault": 4615,
      "yles": 4616,
      "ndom": 4617,
      "Ġhomes": 4618,
      "idential": 4619,
      "Ġgets": 4620,
      "Ġ2012": 4621,
      "ographic": 4622,
      "ĠChildren": 4623,
      "Ġapproximately": 4624,
      "ĠSeptember": 4625,
      "aur": 4626,
      "Ġparties": 4627,
      "Ġrail": 4628,
      "rence": 4629,
      "Ġcoord": 4630,
      "Ġfaced": 4631,
      "Ġpaint": 4632,
      "ĠPhys": 4633,
      "Ġcutting": 4634,
      "ĠGlob": 4635,
      "Ġcognitive": 4636,
      "aign": 4637,
      "ii": 4638,
      "ĠConf": 4639,
      "Ġglass": 4640,
      "Ġfeels": 4641,
      "Ġcarefully": 4642,
      "inn": 4643,
      "ĠExper": 4644,
      "Ġrelease": 4645,
      "Ġmotor": 4646,
      "Ġappreciate": 4647,
      "ien": 4648,
      "mary": 4649,
      "eters": 4650,
      "Ġcommand": 4651,
      "tenance": 4652,
      "?\"": 4653,
      "ias": 4654,
      "hest": 4655,
      "24": 4656,
      "Ġ×": 4657,
      "era": 4658,
      "Ġves": 4659,
      "Ġsud": 4660,
      "ĠUp": 4661,
      "Ġoption": 4662,
      "Ġformer": 4663,
      "ĠGreen": 4664,
      "Ġregul": 4665,
      "ĠConst": 4666,
      "Ġclasses": 4667,
      "Ġinvolving": 4668,
      "Ġtrib": 4669,
      "Ġdri": 4670,
      "Ġenable": 4671,
      "Ġrecip": 4672,
      "ĠWho": 4673,
      "Ġgenerations": 4674,
      "Ġrecommended": 4675,
      "acing": 4676,
      "Ġchart": 4677,
      "unch": 4678,
      "Ġattrib": 4679,
      "Ġframew": 4680,
      "ny": 4681,
      "ta": 4682,
      "Ġnotice": 4683,
      "Ġexperts": 4684,
      "Ġleads": 4685,
      "Ġmovements": 4686,
      "Ġmajority": 4687,
      "Ġfostering": 4688,
      "Ġperspectives": 4689,
      "Ġindependent": 4690,
      "asion": 4691,
      "Ġalt": 4692,
      "Ġreference": 4693,
      "Ġbeliefs": 4694,
      "Ġgod": 4695,
      "ĠRiver": 4696,
      "Ġ2015": 4697,
      "ĠMex": 4698,
      "ĠJune": 4699,
      "Ġtruth": 4700,
      "Ġimpacts": 4701,
      "Ġdrive": 4702,
      "Ġwidely": 4703,
      "Ġsatis": 4704,
      "Ġlinked": 4705,
      "ĠDesign": 4706,
      "ndrome": 4707,
      "ĠLike": 4708,
      "Ġguidelines": 4709,
      "omas": 4710,
      "ĠSan": 4711,
      "Ġroots": 4712,
      "ĠSpanish": 4713,
      "Ġdescribe": 4714,
      "Ġhttp": 4715,
      "Ġpric": 4716,
      "Ġaren": 4717,
      "Ġassessment": 4718,
      "Ġwinter": 4719,
      "ĠJanuary": 4720,
      "onom": 4721,
      "Ġliqu": 4722,
      "Ġrh": 4723,
      "roup": 4724,
      "Ġformat": 4725,
      "Ġvegetables": 4726,
      "ken": 4727,
      "rael": 4728,
      "Ġspring": 4729,
      "Ġintric": 4730,
      "ĠUnion": 4731,
      "Ġdigest": 4732,
      "Ġgather": 4733,
      "Ġphase": 4734,
      "inations": 4735,
      "Ġsess": 4736,
      "rab": 4737,
      "ĠCult": 4738,
      "Ġgenerate": 4739,
      "Ġprepared": 4740,
      "men": 4741,
      "Ġwrote": 4742,
      "orge": 4743,
      "Ġfaster": 4744,
      "ĠDevelopment": 4745,
      "ND": 4746,
      "rate": 4747,
      "Ġmission": 4748,
      "Ġrenew": 4749,
      "ĠBo": 4750,
      "ĠFree": 4751,
      "Ġtrig": 4752,
      "ovember": 4753,
      "Ġremove": 4754,
      "Ġspiritual": 4755,
      "ĠCre": 4756,
      "Ġdiscrim": 4757,
      "Ġdelve": 4758,
      "ortunately": 4759,
      "Ġcomponent": 4760,
      "Ġtail": 4761,
      "ĠMicro": 4762,
      "Ġtraditions": 4763,
      "Ġ2021": 4764,
      "ĠEnergy": 4765,
      "ĠJewish": 4766,
      "ĠProfess": 4767,
      "ux": 4768,
      "Ġpapers": 4769,
      "icians": 4770,
      "riculum": 4771,
      "Ġexpression": 4772,
      "Ġ2011": 4773,
      "Ġbehaviors": 4774,
      "ped": 4775,
      "cember": 4776,
      "ĠAD": 4777,
      "ĠMac": 4778,
      "abric": 4779,
      "ĠGermany": 4780,
      "Ġshaping": 4781,
      "bed": 4782,
      "za": 4783,
      "iling": 4784,
      "Ġroll": 4785,
      "Ġdetermined": 4786,
      "Ġfundamental": 4787,
      "pped": 4788,
      "ĠDNA": 4789,
      "Ġcloth": 4790,
      "Ġcourt": 4791,
      "Ġplatforms": 4792,
      "Ġsweet": 4793,
      "Ġexcellent": 4794,
      "house": 4795,
      "Ġesc": 4796,
      "iforn": 4797,
      "Ġoffering": 4798,
      "Ġscenar": 4799,
      "Ġingredients": 4800,
      "rest": 4801,
      "ĠKnow": 4802,
      "Ġ2019": 4803,
      "cont": 4804,
      "Ġimproving": 4805,
      "Ġresponses": 4806,
      "making": 4807,
      "Ġsou": 4808,
      "Ġpark": 4809,
      "Ġdu": 4810,
      "Ġthick": 4811,
      "iration": 4812,
      "Ġvent": 4813,
      "Ġspent": 4814,
      "Ġboost": 4815,
      "ĠPresident": 4816,
      "Ġtexts": 4817,
      "EM": 4818,
      "ĠIS": 4819,
      "ĠData": 4820,
      "Ġtemperatures": 4821,
      "Ġhttps": 4822,
      "Ġwealth": 4823,
      "ĠGr": 4824,
      "Ġagg": 4825,
      "Ġarticles": 4826,
      "Ġsupporting": 4827,
      "199": 4828,
      "32": 4829,
      "Ġlibrary": 4830,
      "osm": 4831,
      "osystem": 4832,
      "Ġ2008": 4833,
      "Ġcorrespond": 4834,
      "Ġmedicine": 4835,
      "inent": 4836,
      "ĠPal": 4837,
      "ĠGovern": 4838,
      "ĠOut": 4839,
      "Ġconscious": 4840,
      "Ġcapable": 4841,
      "Ġ70": 4842,
      "Ġaffects": 4843,
      "Ġencoun": 4844,
      "ĠParis": 4845,
      "Ġmale": 4846,
      "Ġgave": 4847,
      "ĠStr": 4848,
      "Ġrandom": 4849,
      "Ġadding": 4850,
      "Ġideal": 4851,
      "Ġbuildings": 4852,
      "Ġrecognize": 4853,
      "Ġreplace": 4854,
      "opy": 4855,
      "Ġ2010": 4856,
      "Ġleadership": 4857,
      "Ġfamiliar": 4858,
      "cling": 4859,
      "Ġparagraph": 4860,
      "Ġpotentially": 4861,
      "Ġliterary": 4862,
      "Ġvulner": 4863,
      "olic": 4864,
      "igration": 4865,
      "Ġconvent": 4866,
      "ĠMark": 4867,
      "Ġgeneration": 4868,
      "Ġinternet": 4869,
      "ĠMedic": 4870,
      "Ġbillion": 4871,
      "oke": 4872,
      "Â°": 4873,
      "Ġsnow": 4874,
      "Ġenab": 4875,
      "Ġjoint": 4876,
      "lick": 4877,
      "ushing": 4878,
      "Ġguidance": 4879,
      "Ġcopy": 4880,
      "Ġvoice": 4881,
      "Ġscholars": 4882,
      "uration": 4883,
      "ighter": 4884,
      "Ġadvoc": 4885,
      "Ġclearly": 4886,
      "ĠFeb": 4887,
      "Ġsector": 4888,
      "Ġpollution": 4889,
      "Ġson": 4890,
      "Ġthor": 4891,
      "ste": 4892,
      "Ġinformed": 4893,
      "Ġterrit": 4894,
      "Ġinnovative": 4895,
      "Ġconflict": 4896,
      "Ġnutrients": 4897,
      "Ġsem": 4898,
      "ingly": 4899,
      "Ġseeds": 4900,
      "ĠLife": 4901,
      "ĠVal": 4902,
      "Ġserved": 4903,
      "Ġcombination": 4904,
      "Ġvolume": 4905,
      "idden": 4906,
      "Ġvitamin": 4907,
      "ĠCong": 4908,
      "Ġspaces": 4909,
      "comp": 4910,
      "ĠAbout": 4911,
      "EC": 4912,
      "Ġstar": 4913,
      "Ġabilities": 4914,
      "akers": 4915,
      "Ġdied": 4916,
      "Ġfollows": 4917,
      "Ġclassical": 4918,
      "Ġproperly": 4919,
      "Ġmanufacturing": 4920,
      "ĠPublic": 4921,
      "ĠFol": 4922,
      "ĠFood": 4923,
      "Ġleaving": 4924,
      "Ġhelpful": 4925,
      "Ġoffic": 4926,
      "Ġcenturies": 4927,
      "Ġsolve": 4928,
      "Ġlanguages": 4929,
      "Ġfrequency": 4930,
      "Ġcandid": 4931,
      "As": 4932,
      "Ġign": 4933,
      "Ġretain": 4934,
      "Ġseed": 4935,
      "riend": 4936,
      "Ġdecades": 4937,
      "Ġextremely": 4938,
      "Ġconv": 4939,
      "Ġskill": 4940,
      "ĠAlice": 4941,
      "Ġproteins": 4942,
      "Ġprocedures": 4943,
      "ĠTwo": 4944,
      "Ġaf": 4945,
      "alk": 4946,
      "icious": 4947,
      "ĠPaul": 4948,
      "Ġnotes": 4949,
      "Ġtrain": 4950,
      "Ġconsists": 4951,
      "Ġsecure": 4952,
      "Ġpurposes": 4953,
      "Ġaudience": 4954,
      "gn": 4955,
      "Ġsand": 4956,
      "atically": 4957,
      "itter": 4958,
      "Ġmel": 4959,
      "Ġdram": 4960,
      "Ġshar": 4961,
      "Ġemployees": 4962,
      "Ġdatab": 4963,
      "AD": 4964,
      "Ġwat": 4965,
      "ĠHistor": 4966,
      "Ġinfections": 4967,
      "65": 4968,
      "==": 4969,
      "Ġtherm": 4970,
      "Ġnames": 4971,
      "Ġpros": 4972,
      "ĠBet": 4973,
      "Ġ28": 4974,
      "agon": 4975,
      "ĠWorks": 4976,
      "Ġtalking": 4977,
      "Ġbrief": 4978,
      "Ġmer": 4979,
      "ĠSk": 4980,
      "ĠSet": 4981,
      "Ġ27": 4982,
      "Ġspot": 4983,
      "Ġamazing": 4984,
      "Ġinstruction": 4985,
      "Ġensures": 4986,
      "Ġmeeting": 4987,
      "Ġcollaboration": 4988,
      "Ġeggs": 4989,
      "ford": 4990,
      "mas": 4991,
      "Ġremov": 4992,
      "Ġintroduced": 4993,
      "Ġisol": 4994,
      "Ġalign": 4995,
      "ĠDiff": 4996,
      "Ġsports": 4997,
      "Ġrelax": 4998,
      "Ġmedium": 4999,
      "Ġtreatments": 5000,
      "Ġfunctional": 5001,
      "Ġlisten": 5002,
      "Ġdegrees": 5003,
      "gypt": 5004,
      "Ġvessel": 5005,
      "tion": 5006,
      "Ġmaybe": 5007,
      "Ġnetworks": 5008,
      "Ġrevolution": 5009,
      "Ġreferred": 5010,
      "Ġsettings": 5011,
      "erate": 5012,
      "Ġcast": 5013,
      "Ġwall": 5014,
      "icit": 5015,
      "Ġnations": 5016,
      "ether": 5017,
      "Ġhero": 5018,
      "ourage": 5019,
      "Ġcircumst": 5020,
      "Ġlooks": 5021,
      "ĠMr": 5022,
      "ĠMat": 5023,
      "ĠWhere": 5024,
      "Ġvs": 5025,
      "Ġconsult": 5026,
      "Ġvision": 5027,
      "Ġmarketing": 5028,
      "ĠCaliforn": 5029,
      "ST": 5030,
      "Ġisland": 5031,
      "Ġregularly": 5032,
      "ĠOctober": 5033,
      "ĠJournal": 5034,
      "rum": 5035,
      "ups": 5036,
      "ĠSar": 5037,
      "Ġoffice": 5038,
      "Ġsaying": 5039,
      "Ġflowers": 5040,
      "Ġ<": 5041,
      "Ġocean": 5042,
      "Ġloved": 5043,
      "ĠSuch": 5044,
      "Ġemissions": 5045,
      "Ġrecy": 5046,
      "ĠUnit": 5047,
      "ĠWeb": 5048,
      "Ġ2013": 5049,
      "ĠFrank": 5050,
      "Ġvariables": 5051,
      "Ġspl": 5052,
      "Ġsav": 5053,
      "ocal": 5054,
      "Ġobst": 5055,
      "Ġexploration": 5056,
      "oyal": 5057,
      "ĠIsrael": 5058,
      "Ġdedicated": 5059,
      "ĠAugust": 5060,
      "rich": 5061,
      "Ġsac": 5062,
      "Ġcart": 5063,
      "olute": 5064,
      "idity": 5065,
      "anted": 5066,
      "ĠFind": 5067,
      "ĠNO": 5068,
      "ĠManagement": 5069,
      "Ġclosely": 5070,
      "Ġconducted": 5071,
      "ĠSch": 5072,
      "Ġ26": 5073,
      "Ġunderst": 5074,
      "Ġsurgery": 5075,
      "Ġhappy": 5076,
      "Ġcontaining": 5077,
      "free": 5078,
      "Ġtrou": 5079,
      "ĠEst": 5080,
      "Ġselection": 5081,
      "Ġupper": 5082,
      "ĠWind": 5083,
      "Ġdiss": 5084,
      "ĠVis": 5085,
      "Ġmainly": 5086,
      "Ġmaintenance": 5087,
      "Ġminor": 5088,
      "Ġcreates": 5089,
      "Ġtitle": 5090,
      "rog": 5091,
      "Ġwear": 5092,
      "ificial": 5093,
      "Ġexplained": 5094,
      "Ġreader": 5095,
      "Ġcourses": 5096,
      "Ġtruly": 5097,
      "Ġinnovation": 5098,
      "Ġelectrical": 5099,
      "Ġsudden": 5100,
      "faces": 5101,
      "Ġtaught": 5102,
      "Ġmere": 5103,
      "ĠWord": 5104,
      "ĠChapter": 5105,
      "Ġsets": 5106,
      "Ġ80": 5107,
      "Ġinflamm": 5108,
      "Ġinsect": 5109,
      "Ġexternal": 5110,
      "ĠNum": 5111,
      "Ġdiscipl": 5112,
      "ĠUN": 5113,
      "ologists": 5114,
      "Ġlegis": 5115,
      "ĠFrance": 5116,
      "Ġultimately": 5117,
      "ĠLesson": 5118,
      "roph": 5119,
      "Ġlies": 5120,
      "ĠTop": 5121,
      "Ġserves": 5122,
      "nes": 5123,
      "Ġsort": 5124,
      "Ġinterested": 5125,
      "ipped": 5126,
      "Ġvolunte": 5127,
      "ĠIdent": 5128,
      "Ġfabric": 5129,
      "icing": 5130,
      "osen": 5131,
      "ĠDist": 5132,
      "Ġriver": 5133,
      "Ġattacks": 5134,
      "ĠAtt": 5135,
      "Ġpreviously": 5136,
      "35": 5137,
      "TI": 5138,
      "car": 5139,
      "alysis": 5140,
      "lease": 5141,
      "ĠCoun": 5142,
      "ĠHouse": 5143,
      "osite": 5144,
      "ĠRoman": 5145,
      "Ġkn": 5146,
      "Ġcareful": 5147,
      "ĠCommon": 5148,
      "Ġplease": 5149,
      "col": 5150,
      "Ġcooking": 5151,
      "ĠSy": 5152,
      "ĠEqu": 5153,
      "Ġstrange": 5154,
      "Ġshel": 5155,
      "Ġreaction": 5156,
      "rieved": 5157,
      "Ġmoist": 5158,
      "ĠEffect": 5159,
      "ria": 5160,
      "Ġappe": 5161,
      "âĢĿ,": 5162,
      "Ġunderlying": 5163,
      "Ġacknow": 5164,
      "Ġera": 5165,
      "ĠGeneral": 5166,
      "ĠExamples": 5167,
      "29": 5168,
      "Ġfib": 5169,
      "Ġchann": 5170,
      "Ġround": 5171,
      "ĠNovember": 5172,
      "ersonal": 5173,
      "Ġtissue": 5174,
      "herent": 5175,
      "Ġthesis": 5176,
      "Ġmal": 5177,
      "omb": 5178,
      "ĠWork": 5179,
      "Ġvot": 5180,
      "Ġmeant": 5181,
      "Ġreprodu": 5182,
      "Ġeveryday": 5183,
      "Ġlifest": 5184,
      "ĠBook": 5185,
      "ĠLast": 5186,
      "lowing": 5187,
      "Ġshowing": 5188,
      "Ġcreativity": 5189,
      "ĠDecember": 5190,
      "ĠEmp": 5191,
      "Ġdocuments": 5192,
      "ĠQuest": 5193,
      "Ġnarratives": 5194,
      "ĠSometimes": 5195,
      "ĠCalifornia": 5196,
      "des": 5197,
      "iate": 5198,
      "ican": 5199,
      "ĠMiddle": 5200,
      "Ġchain": 5201,
      "Ġkill": 5202,
      "Ġmanaging": 5203,
      "do": 5204,
      "ĠCD": 5205,
      "ĠMain": 5206,
      "Ġspend": 5207,
      "Ġmotion": 5208,
      "ĠDoes": 5209,
      "Ġhousehold": 5210,
      "ĠTechnology": 5211,
      "Ġcloser": 5212,
      "Ġahead": 5213,
      "Ġfiction": 5214,
      "asive": 5215,
      "ille": 5216,
      "iday": 5217,
      "Ġstyles": 5218,
      "Ġknew": 5219,
      "Ġmostly": 5220,
      "Ġexamining": 5221,
      "Ġengagement": 5222,
      "Ġecosystem": 5223,
      "Ġdoub": 5224,
      "\",": 5225,
      "Ġconver": 5226,
      "sequently": 5227,
      "Ġcampaign": 5228,
      "78": 5229,
      "Ġwis": 5230,
      "ams": 5231,
      "ĠBel": 5232,
      "ĠBudd": 5233,
      "ogue": 5234,
      "Ġabuse": 5235,
      "Ġmanner": 5236,
      "Ġsche": 5237,
      "Ġtypical": 5238,
      "Ġsecret": 5239,
      "Ġfinally": 5240,
      "Ġauthority": 5241,
      "Ġaddressing": 5242,
      "Ġharmful": 5243,
      "Ġprecise": 5244,
      "Ġdangerous": 5245,
      "OC": 5246,
      "vis": 5247,
      "Ġmit": 5248,
      "Ġgained": 5249,
      "Ġresili": 5250,
      "Ġhousing": 5251,
      "Ġexchange": 5252,
      "bi": 5253,
      "Ġnurs": 5254,
      "Ġ29": 5255,
      "Ġfoundation": 5256,
      "Ġ2009": 5257,
      "Ġlabel": 5258,
      "Ġboundaries": 5259,
      "ĠBre": 5260,
      "Ġsuitable": 5261,
      "Ġclar": 5262,
      "anges": 5263,
      "Ġindigenous": 5264,
      "ller": 5265,
      "ĠStudies": 5266,
      "Ġmorning": 5267,
      "Ġfigures": 5268,
      "ĠLearn": 5269,
      "Ġoptimal": 5270,
      "well": 5271,
      "Ġstone": 5272,
      "ĠCreat": 5273,
      "ĠFound": 5274,
      "Ġpret": 5275,
      "hips": 5276,
      "Ġdepends": 5277,
      "Ġperformed": 5278,
      "Ġtreated": 5279,
      "Ġappearance": 5280,
      "Ġethical": 5281,
      "ĠConsider": 5282,
      "Ġtransportation": 5283,
      "33": 5284,
      "ball": 5285,
      "Ġdrop": 5286,
      "Ġlinks": 5287,
      "Ġstages": 5288,
      "ĠCr": 5289,
      "ĠChurch": 5290,
      "Ġparticles": 5291,
      "Ġelectronic": 5292,
      "Ġslightly": 5293,
      "Ġsamples": 5294,
      "Ġarchitecture": 5295,
      "atric": 5296,
      "ogether": 5297,
      "erent": 5298,
      "Ġkil": 5299,
      "Ġunc": 5300,
      "ĠProject": 5301,
      "Ġletters": 5302,
      "Ġvictim": 5303,
      "Ġcircumstances": 5304,
      "rot": 5305,
      "otic": 5306,
      "ĠBible": 5307,
      "Ġhearing": 5308,
      "Ġwasn": 5309,
      "Ġsin": 5310,
      "Ġwave": 5311,
      "Ġband": 5312,
      "ulating": 5313,
      "ĠMary": 5314,
      "umn": 5315,
      "rix": 5316,
      "Ġarm": 5317,
      "Ġadvice": 5318,
      "Ġpictures": 5319,
      "Ġincorporating": 5320,
      "Ġcomprehensive": 5321,
      "Ð¾": 5322,
      "Ġwest": 5323,
      "Ġmemories": 5324,
      "Ġhighest": 5325,
      "ĠSociety": 5326,
      "RE": 5327,
      "Ġbud": 5328,
      "arrow": 5329,
      "ĠIr": 5330,
      "ĠCare": 5331,
      "ĠEgypt": 5332,
      "ĠOld": 5333,
      "ruary": 5334,
      "ĠWhite": 5335,
      "Ġprompt": 5336,
      "Ġdomin": 5337,
      "Ġindicate": 5338,
      "Ġcontrolled": 5339,
      "LE": 5340,
      "road": 5341,
      "asp": 5342,
      "celer": 5343,
      "ĠElect": 5344,
      "ĠKore": 5345,
      "Ġfruits": 5346,
      "PS": 5347,
      "ek": 5348,
      "ĠWald": 5349,
      "Ġclim": 5350,
      "Ġassistance": 5351,
      "Ġdeliver": 5352,
      "ashion": 5353,
      "appy": 5354,
      "Ġinstructions": 5355,
      "ĠDig": 5356,
      "Ġenables": 5357,
      "Ġconcern": 5358,
      "Ġtouch": 5359,
      "ĠSimilarly": 5360,
      "can": 5361,
      "lers": 5362,
      "eria": 5363,
      "Ġban": 5364,
      "Ġmic": 5365,
      "Ġyellow": 5366,
      "ĠBuild": 5367,
      "ifications": 5368,
      "ĠMean": 5369,
      "rastructure": 5370,
      "gment": 5371,
      "vity": 5372,
      "Ġcovered": 5373,
      "Ġdiscussed": 5374,
      "Ġviews": 5375,
      "Ġrepresentation": 5376,
      "ĠIII": 5377,
      "Ġcommunicate": 5378,
      "hus": 5379,
      "Ġbank": 5380,
      "ĠTreat": 5381,
      "Ġvibr": 5382,
      "ĠDet": 5383,
      "ails": 5384,
      "certain": 5385,
      "Ġperiods": 5386,
      "Ġmoved": 5387,
      "ĠCentral": 5388,
      "uracy": 5389,
      "Ġbegins": 5390,
      "Ġtiny": 5391,
      "eding": 5392,
      "Ġhit": 5393,
      "enses": 5394,
      "Ġknows": 5395,
      "Ġtrends": 5396,
      "Ġcrime": 5397,
      "Ġamounts": 5398,
      "Ġmechanisms": 5399,
      "Ġconcentration": 5400,
      "ĠProgram": 5401,
      "uing": 5402,
      "atural": 5403,
      "Ġcert": 5404,
      "ĠFact": 5405,
      "Ġhaz": 5406,
      "active": 5407,
      "Ġconsidering": 5408,
      "ij": 5409,
      "och": 5410,
      "erior": 5411,
      "level": 5412,
      "chain": 5413,
      "umes": 5414,
      "Ġintended": 5415,
      "Ġunex": 5416,
      "Ġsyndrome": 5417,
      "Ġdesired": 5418,
      "Ġkinds": 5419,
      "Ġinteractions": 5420,
      "Ġaimed": 5421,
      "45": 5422,
      "PA": 5423,
      "cers": 5424,
      "nel": 5425,
      "Ġcatch": 5426,
      "Ġbone": 5427,
      "ctor": 5428,
      "Ġotherwise": 5429,
      "ĠSte": 5430,
      "Ġpron": 5431,
      "Ġkept": 5432,
      "Ġlearners": 5433,
      "Ġcritic": 5434,
      "Ġexistence": 5435,
      "Ġanswers": 5436,
      "Ġanalyze": 5437,
      "Ġbarri": 5438,
      "Ġpal": 5439,
      "Ġpil": 5440,
      "Ġbow": 5441,
      "Ġreb": 5442,
      "Ġcomment": 5443,
      "Ġconservation": 5444,
      "Ġexposed": 5445,
      "Ġsupported": 5446,
      "ĠIsland": 5447,
      "ĠColle": 5448,
      "Ġmilk": 5449,
      "Ġnavigate": 5450,
      "ĠDavid": 5451,
      "Ġmonitoring": 5452,
      "Ġtap": 5453,
      "oma": 5454,
      "ĠPers": 5455,
      "Ġ2007": 5456,
      "Ġvehicles": 5457,
      "90": 5458,
      "Ġax": 5459,
      "pping": 5460,
      "ago": 5461,
      "Ġoffered": 5462,
      "Ġdesigns": 5463,
      "Ġsentence": 5464,
      "Ġapart": 5465,
      "ashington": 5466,
      "eff": 5467,
      "Ġlic": 5468,
      "ĠPost": 5469,
      "ĠJames": 5470,
      "Ġ2006": 5471,
      "Ġconcrete": 5472,
      "26": 5473,
      "ĠLeg": 5474,
      "ressed": 5475,
      "Ġperce": 5476,
      "Ġgene": 5477,
      "Ġdiscovery": 5478,
      "Ġcharge": 5479,
      "Ġoperation": 5480,
      "Ġconsistent": 5481,
      "Ġdouble": 5482,
      "Ġestimated": 5483,
      "Ġbottom": 5484,
      "27": 5485,
      "28": 5486,
      "uls": 5487,
      "tee": 5488,
      "Ġcoal": 5489,
      "Ġdescribes": 5490,
      "Ġsufficient": 5491,
      "Ġexciting": 5492,
      "Ġreactions": 5493,
      "Ġadvantages": 5494,
      "itness": 5495,
      "ĠEconom": 5496,
      "unk": 5497,
      "Ġtransact": 5498,
      "Ġcars": 5499,
      "Ġcurriculum": 5500,
      "ĠQue": 5501,
      "Ġdetailed": 5502,
      "Ġdiagnosis": 5503,
      "ĠTake": 5504,
      "Ġnerv": 5505,
      "aming": 5506,
      "Ġassemb": 5507,
      "ander": 5508,
      "ĠDirect": 5509,
      "Ġ150": 5510,
      "Ġdie": 5511,
      "Ġnit": 5512,
      "Ġleader": 5513,
      "Ġlooked": 5514,
      "Ġcomputers": 5515,
      "Ġcircuit": 5516,
      "Ġreleased": 5517,
      "writ": 5518,
      "onia": 5519,
      "ellect": 5520,
      "ĠDel": 5521,
      "Ġtransition": 5522,
      "Ġbright": 5523,
      "ĠImp": 5524,
      "Ġhandle": 5525,
      "Ġcertainly": 5526,
      "Ġerror": 5527,
      "Ġannual": 5528,
      "itutional": 5529,
      "Ġjoin": 5530,
      "38": 5531,
      "Ġ>": 5532,
      "mentia": 5533,
      "ĠPsych": 5534,
      "uses": 5535,
      "Ġweap": 5536,
      "Ġrig": 5537,
      "ĠOh": 5538,
      "Ġuniversity": 5539,
      "Ġacts": 5540,
      "Ġremote": 5541,
      "Ġradio": 5542,
      "Ġdomestic": 5543,
      "Ġlayers": 5544,
      "Ġshif": 5545,
      "pling": 5546,
      "ague": 5547,
      "Ġsurvey": 5548,
      "Ġlung": 5549,
      "ĠFore": 5550,
      "ologist": 5551,
      "ĠIslam": 5552,
      "Ġlistening": 5553,
      "Ġcustomers": 5554,
      "Ġinjury": 5555,
      "Ġprepare": 5556,
      "Ġprocedure": 5557,
      "organ": 5558,
      "Ġlib": 5559,
      "ĠMart": 5560,
      "ĠPython": 5561,
      "empl": 5562,
      "ĠInf": 5563,
      "ĠAny": 5564,
      "Ġsteel": 5565,
      "Ġselected": 5566,
      "Ġ---------------------------------": 5567,
      "Ġincredible": 5568,
      "irt": 5569,
      "Ġproport": 5570,
      "Ġuns": 5571,
      "Ġknowing": 5572,
      "ĠIndigenous": 5573,
      "Ġfarmers": 5574,
      "ĠAustralian": 5575,
      "ML": 5576,
      "Ġhop": 5577,
      "ĠLord": 5578,
      "agers": 5579,
      "Ġkm": 5580,
      "Ġdownload": 5581,
      "Ġfacing": 5582,
      "Ġhouses": 5583,
      "Ġresilience": 5584,
      "isk": 5585,
      "stream": 5586,
      "ĠST": 5587,
      "ĠSaf": 5588,
      "ĠGood": 5589,
      "Ġindex": 5590,
      "Ġvehicle": 5591,
      "Ġtow": 5592,
      "ĠCivil": 5593,
      "Ġcoop": 5594,
      "Ġexamination": 5595,
      "Ġgenerated": 5596,
      "Ġextract": 5597,
      "Ġmarriage": 5598,
      "Ġmachines": 5599,
      "Ġsubstant": 5600,
      "Ġmoral": 5601,
      "Ã¼ller": 5602,
      "ixt": 5603,
      "Ġtoler": 5604,
      "ĠDem": 5605,
      "ĠLa": 5606,
      "ĠNext": 5607,
      "Ġabund": 5608,
      "ĠInformation": 5609,
      "ultane": 5610,
      "Ġexpectations": 5611,
      "Ġchemicals": 5612,
      "Ġfoster": 5613,
      "RO": 5614,
      "cast": 5615,
      "Ġgenes": 5616,
      "Ġ2000": 5617,
      "Ġmatters": 5618,
      "Ġspeaking": 5619,
      "Ġsmoking": 5620,
      "Ġdynamics": 5621,
      "friend": 5622,
      "tes": 5623,
      "ye": 5624,
      "stract": 5625,
      "ĠMet": 5626,
      "ĠWomen": 5627,
      "ĠNature": 5628,
      "Ġcompare": 5629,
      "Ġphr": 5630,
      "Ġtechnical": 5631,
      "Ġcompleted": 5632,
      "Ġsensitive": 5633,
      "Ġmaximum": 5634,
      "Ġunderstood": 5635,
      "gl": 5636,
      "rors": 5637,
      "orous": 5638,
      "Ġstom": 5639,
      "Ġforced": 5640,
      "Ġpregn": 5641,
      "berg": 5642,
      "Ġstarts": 5643,
      "Ġpassion": 5644,
      "Ġprevention": 5645,
      "Ġtells": 5646,
      "Ġsen": 5647,
      "abul": 5648,
      "ĠWashington": 5649,
      "Ġpersist": 5650,
      "Ġgreatest": 5651,
      "ĠEngine": 5652,
      "Ġnaturally": 5653,
      "Ġparticipation": 5654,
      "Ġstruggle": 5655,
      "tage": 5656,
      "then": 5657,
      "Ġnod": 5658,
      "Ġstands": 5659,
      "Ġrul": 5660,
      "ĠThose": 5661,
      "Ġdecide": 5662,
      "Ġrequest": 5663,
      "Ġelectron": 5664,
      "Ġcombined": 5665,
      "oxide": 5666,
      "Ġindustries": 5667,
      "Ġemerging": 5668,
      "Ġshapes": 5669,
      "Ġhabits": 5670,
      "ĠOmizagog": 5671,
      "ĠWhether": 5672,
      "Ġliquid": 5673,
      "down": 5674,
      "Ġinner": 5675,
      "Ġreached": 5676,
      "Ġimpl": 5677,
      "ĠThink": 5678,
      "Ġplayers": 5679,
      "itudes": 5680,
      "Ġsubstance": 5681,
      "PT": 5682,
      "ĠOpen": 5683,
      "Ġresist": 5684,
      "Ġinfrastructure": 5685,
      "Ġwriters": 5686,
      "ĠMedical": 5687,
      "ĠThroughout": 5688,
      "Ġmessages": 5689,
      "Ġdestroy": 5690,
      "cest": 5691,
      "Ġtheories": 5692,
      "itivity": 5693,
      "Ġtoxic": 5694,
      "asure": 5695,
      "Ġyouth": 5696,
      "Ġrecon": 5697,
      "Ġraise": 5698,
      "ictionary": 5699,
      "Ġintricate": 5700,
      "75": 5701,
      "Ġfirm": 5702,
      "Ġhour": 5703,
      "Ġearn": 5704,
      "Ġappreciation": 5705,
      "ĠCounty": 5706,
      "Ġframework": 5707,
      "Ġlifestyle": 5708,
      "RI": 5709,
      "lo": 5710,
      "ĠGroup": 5711,
      "Ġresol": 5712,
      "fulness": 5713,
      "Ġremark": 5714,
      "Ġbiology": 5715,
      "Ġrecognized": 5716,
      "Ġjobs": 5717,
      "ĠRepublic": 5718,
      "Ġfeedback": 5719,
      "Ġbreath": 5720,
      "Ġdro": 5721,
      "Ġgar": 5722,
      "seem": 5723,
      "Ġstorm": 5724,
      "Ġstret": 5725,
      "ascular": 5726,
      "Ġempathy": 5727,
      "Ġhyper": 5728,
      "Ġadventure": 5729,
      "Ġhospital": 5730,
      "Ġdiscrimination": 5731,
      "roid": 5732,
      "Ġcomposition": 5733,
      "aker": 5734,
      "Ġintervention": 5735,
      "Ġdriving": 5736,
      "rapy": 5737,
      "ĠEnc": 5738,
      "cules": 5739,
      "Ġconsumers": 5740,
      "Ġsusp": 5741,
      "Ġdivided": 5742,
      "Ġtom": 5743,
      "Ġtooth": 5744,
      "ompl": 5745,
      "ĠSat": 5746,
      "ĠBi": 5747,
      "Ġclick": 5748,
      "Ġ195": 5749,
      "Ġsimpl": 5750,
      "Ġsky": 5751,
      "Ġsuccessfully": 5752,
      "Ġbiological": 5753,
      "Ġinteraction": 5754,
      "Ġsquare": 5755,
      "ĠFebruary": 5756,
      "AM": 5757,
      "python": 5758,
      "hent": 5759,
      "isis": 5760,
      "Ġburn": 5761,
      "Ġment": 5762,
      "Ġreduction": 5763,
      "Ġconfidence": 5764,
      "anguage": 5765,
      "Ġproposed": 5766,
      "plicated": 5767,
      "ĠGeorge": 5768,
      "Ġharvest": 5769,
      "Ġcardi": 5770,
      "Ġrapidly": 5771,
      "Ġsocieties": 5772,
      "DA": 5773,
      "Ġbattle": 5774,
      "iled": 5775,
      "ifies": 5776,
      "ĠMot": 5777,
      "ĠPen": 5778,
      "Ġmeat": 5779,
      "ishment": 5780,
      "Ġ90": 5781,
      "Ġcrypt": 5782,
      "ĠRetrieved": 5783,
      "ari": 5784,
      "Ġmice": 5785,
      "Ġhidden": 5786,
      "add": 5787,
      "ĠHome": 5788,
      "Ġnoticed": 5789,
      "Ġ35": 5790,
      "Ġaccuracy": 5791,
      "Ġentertain": 5792,
      "Ġdefine": 5793,
      "Ġtested": 5794,
      "Ġrecognition": 5795,
      "Ġnuclear": 5796,
      "ĠFigure": 5797,
      "lines": 5798,
      "Ġbird": 5799,
      "Ġdin": 5800,
      "Ġlik": 5801,
      "Ġrecovery": 5802,
      "Ġpoet": 5803,
      "ĠExp": 5804,
      "ircraft": 5805,
      "aughter": 5806,
      "nic": 5807,
      "Ġrom": 5808,
      "arant": 5809,
      "Ġremoved": 5810,
      "ĠRussia": 5811,
      "Ġwire": 5812,
      "Ġgun": 5813,
      "Ġphone": 5814,
      "Ġbeneficial": 5815,
      "Ġstronger": 5816,
      "Ġemployed": 5817,
      "Ġportion": 5818,
      "Ġimplementation": 5819,
      "Ġwalking": 5820,
      "Ġbroader": 5821,
      "Ġsouthern": 5822,
      "Ġusage": 5823,
      "ĠThomas": 5824,
      "Ġwriter": 5825,
      "Ġdiscussions": 5826,
      "ĠBritain": 5827,
      "Ġtut": 5828,
      "Ġfoss": 5829,
      "Ġchosen": 5830,
      "Ġmeals": 5831,
      "assion": 5832,
      "Ġaccompl": 5833,
      "Ġinsurance": 5834,
      "Ġmuscles": 5835,
      "Ġopening": 5836,
      "Ġregardless": 5837,
      "Ġmedications": 5838,
      "iosity": 5839,
      "ĠWaldseem": 5840,
      "ĠCollege": 5841,
      "36": 5842,
      "ugh": 5843,
      "Ðµ": 5844,
      "Ġfiber": 5845,
      "Ġmood": 5846,
      "Ġasking": 5847,
      "ĠMem": 5848,
      "Ġadequ": 5849,
      "Ġdisapp": 5850,
      "Ġ45": 5851,
      "Ġcrim": 5852,
      "Ġfailure": 5853,
      "Ġatmosphere": 5854,
      "Ġaqu": 5855,
      "racy": 5856,
      "ulf": 5857,
      "ĠMult": 5858,
      "Ġimplications": 5859,
      "Ġregional": 5860,
      "Ġgovernments": 5861,
      "ĠStudy": 5862,
      "ĠAmong": 5863,
      "Ġvideos": 5864,
      "Ġgirls": 5865,
      "Ġnp": 5866,
      "urd": 5867,
      "Ġfort": 5868,
      "ĠCap": 5869,
      "Ġtraffic": 5870,
      "Ġrestrict": 5871,
      "Ġemerged": 5872,
      "ĠGlobal": 5873,
      "ĠWaldseemÃ¼ller": 5874,
      "MS": 5875,
      "OU": 5876,
      "verty": 5877,
      "ĠStar": 5878,
      "ĠAtl": 5879,
      "Ġmillions": 5880,
      "ĠFinland": 5881,
      "Ġdoctors": 5882,
      "Ġconclud": 5883,
      "Ġpuzz": 5884,
      "ĠAssociation": 5885,
      "Ġthorough": 5886,
      "100": 5887,
      "ĠAst": 5888,
      "ĠCB": 5889,
      "oples": 5890,
      "ĠHen": 5891,
      "ĠForm": 5892,
      "ĠList": 5893,
      "Ġshop": 5894,
      "Ġstudied": 5895,
      "Ġaccomp": 5896,
      "Ġpoverty": 5897,
      "Ġflo": 5898,
      "Ġseemed": 5899,
      "while": 5900,
      "holders": 5901,
      "Ġafford": 5902,
      "ĠVirgin": 5903,
      "31": 5904,
      "bing": 5905,
      "Ġbot": 5906,
      "Ġmort": 5907,
      "olf": 5908,
      "ĠSer": 5909,
      "ĠMal": 5910,
      "ĠDise": 5911,
      "Ġgrown": 5912,
      "note": 5913,
      "Ġsick": 5914,
      "Ġwalls": 5915,
      "Ġfu": 5916,
      "ctive": 5917,
      "Ġyog": 5918,
      "ĠSil": 5919,
      "Ġwhom": 5920,
      "ĠNon": 5921,
      "ieval": 5922,
      "Ġproviders": 5923,
      "ĠÂ·": 5924,
      "Ġdecrease": 5925,
      "Ġcrops": 5926,
      "rans": 5927,
      "Äģ": 5928,
      "Ð°": 5929,
      "Ġsan": 5930,
      "ĠArab": 5931,
      "Ġancest": 5932,
      "ĠHol": 5933,
      "ĠRad": 5934,
      "Ġinsight": 5935,
      "Ġbrings": 5936,
      "Ġhappening": 5937,
      "Ġfocuses": 5938,
      "Ġdescript": 5939,
      "Ġparticipate": 5940,
      "Ġsuggested": 5941,
      "Ġvariable": 5942,
      "Ġcollected": 5943,
      "Ġsuffering": 5944,
      "Ġroutine": 5945,
      "Ġcomfortable": 5946,
      "Ġmaps": 5947,
      "Ġagents": 5948,
      "Ġregulations": 5949,
      "Ġheritage": 5950,
      "Ġcreatures": 5951,
      "Ġmeaningful": 5952,
      "rolog": 5953,
      "Ġwait": 5954,
      "Ġadministration": 5955,
      "Ġagriculture": 5956,
      "Ġlatest": 5957,
      "Ġdatabase": 5958,
      "37": 5959,
      "hand": 5960,
      "Ġtall": 5961,
      "ĠRober": 5962,
      "aks": 5963,
      "Ġamb": 5964,
      "Ġcouldn": 5965,
      "Ġprofound": 5966,
      "Ġstanding": 5967,
      "Ġprogramming": 5968,
      "ĠLatin": 5969,
      "hist": 5970,
      "rated": 5971,
      "Ã¡": 5972,
      "Ġsend": 5973,
      "lements": 5974,
      "astern": 5975,
      "Ġthin": 5976,
      "Ġexists": 5977,
      "Ġmyself": 5978,
      "Ġformal": 5979,
      "Ġsettle": 5980,
      "Ġmusical": 5981,
      "Ġrepresented": 5982,
      "Ġfilter": 5983,
      "spec": 5984,
      "Ġdemonstrate": 5985,
      "Ġcredit": 5986,
      "Ġprinciple": 5987,
      "band": 5988,
      "icate": 5989,
      "otes": 5990,
      "Ġanth": 5991,
      "ĠBC": 5992,
      "Ġdementia": 5993,
      "ĠLook": 5994,
      "Ġuniverse": 5995,
      "Ġarray": 5996,
      "neys": 5997,
      "Ġracial": 5998,
      "Ġamid": 5999,
      "Ġscene": 6000,
      "ossible": 6001,
      "ĠEarly": 6002,
      "Ġinjuries": 6003,
      "ĠJapanese": 6004,
      "Ġmobile": 6005,
      "flow": 6006,
      "mp": 6007,
      "Ġtit": 6008,
      "Ġtun": 6009,
      "athe": 6010,
      "Ġlose": 6011,
      "ĠMount": 6012,
      "Ġchol": 6013,
      "Ġchrom": 6014,
      "ĠJud": 6015,
      "Ġinvent": 6016,
      "Ġexplains": 6017,
      "ĠProv": 6018,
      "ĠPlant": 6019,
      "Ġfacilities": 6020,
      "Ġalongside": 6021,
      "ĠModern": 6022,
      "Ġcouple": 6023,
      "SA": 6024,
      "craft": 6025,
      "df": 6026,
      "han": 6027,
      "lar": 6028,
      "son": 6029,
      "Ġfif": 6030,
      "Ġfill": 6031,
      "imens": 6032,
      "Ġstars": 6033,
      "ĠCam": 6034,
      "atever": 6035,
      "istan": 6036,
      "apes": 6037,
      "Ġmanip": 6038,
      "Ġblog": 6039,
      "Ġshell": 6040,
      "Ġelev": 6041,
      "Ġcharacterized": 6042,
      "Ġimprovement": 6043,
      "Ġinspired": 6044,
      "Course": 6045,
      "You": 6046,
      "uous": 6047,
      "zil": 6048,
      "Ġic": 6049,
      "ĠCy": 6050,
      "ado": 6051,
      "ĠLong": 6052,
      "Ġnoted": 6053,
      "inding": 6054,
      "Ġsignals": 6055,
      "ĠReview": 6056,
      "Ġmarkets": 6057,
      "Ġdynamic": 6058,
      "Ġsocietal": 6059,
      "Ġexpertise": 6060,
      "Ġbattery": 6061,
      "Ġtension": 6062,
      "icks": 6063,
      "ĠTim": 6064,
      "osal": 6065,
      "ĠDiv": 6066,
      "Ġoverw": 6067,
      "Ġexplan": 6068,
      "Ġsimultane": 6069,
      "Ġextent": 6070,
      "Ġreduces": 6071,
      "Ġsummary": 6072,
      "Ġarrange": 6073,
      "Ġfluid": 6074,
      "orrow": 6075,
      "ĠTex": 6076,
      "ĠSchol": 6077,
      "ĠCour": 6078,
      "ĠPo": 6079,
      "Ġvoc": 6080,
      "Ġshift": 6081,
      "Ġintellect": 6082,
      "Ġacceler": 6083,
      "Ġtransp": 6084,
      "Ġopposite": 6085,
      "ĠOnline": 6086,
      "Ġconcerned": 6087,
      "Ġradiation": 6088,
      "Ġnegot": 6089,
      "ipping": 6090,
      "Ġmountain": 6091,
      "Ġencounter": 6092,
      "Ġsalt": 6093,
      "Ġwish": 6094,
      "usions": 6095,
      "ums": 6096,
      "ĠEth": 6097,
      "Ġmanaged": 6098,
      "Ġthanks": 6099,
      "rency": 6100,
      "Ġremained": 6101,
      "ventions": 6102,
      "Ġpolice": 6103,
      "Ġbridge": 6104,
      "ĠAdv": 6105,
      "Ġpsychology": 6106,
      "Ġwildlife": 6107,
      "Ġprices": 6108,
      "Ø§": 6109,
      "Ġsizes": 6110,
      "ishes": 6111,
      "Ġpand": 6112,
      "anes": 6113,
      "utive": 6114,
      "usiness": 6115,
      "Ġvisible": 6116,
      "Ġpursu": 6117,
      "Ġdeeply": 6118,
      "Ġsustainability": 6119,
      "Ġconventional": 6120,
      "DF": 6121,
      "ki": 6122,
      "rey": 6123,
      "Ġnarrow": 6124,
      "section": 6125,
      "imal": 6126,
      "ĠRights": 6127,
      "Ġwhereas": 6128,
      "rosc": 6129,
      "Ġrealm": 6130,
      "Ġmarked": 6131,
      "Ġexercises": 6132,
      "Ġpsychological": 6133,
      "Ġconversation": 6134,
      "()": 6135,
      "lig": 6136,
      "Ġinhab": 6137,
      "Ġnor": 6138,
      "iders": 6139,
      "Ġstem": 6140,
      "ĠLight": 6141,
      "ruption": 6142,
      "Ġtransformation": 6143,
      "ĠCurrent": 6144,
      "Ġpaid": 6145,
      "Ġalter": 6146,
      "ĠPlease": 6147,
      "osh": 6148,
      "Ġreserv": 6149,
      "Ġlocations": 6150,
      "Ġcorpor": 6151,
      "what": 6152,
      "Ġunexpected": 6153,
      "gi": 6154,
      "ivery": 6155,
      "heet": 6156,
      "Ġsell": 6157,
      "Ġfrag": 6158,
      "ĠLibrary": 6159,
      "Ġresidents": 6160,
      "Ġoverl": 6161,
      "ieties": 6162,
      "Ġseeing": 6163,
      "Ġbrother": 6164,
      "Ġinflammation": 6165,
      "Ġdealing": 6166,
      "ĠJer": 6167,
      "Ġtheme": 6168,
      "Ġtechnological": 6169,
      "Ġfloor": 6170,
      "Ġedition": 6171,
      "ĠColl": 6172,
      "Step": 6173,
      "Ġhoriz": 6174,
      "Ġmolecules": 6175,
      "Ġpurchase": 6176,
      "Ġfertil": 6177,
      "ĠCongress": 6178,
      "ĠCouncil": 6179,
      "abulary": 6180,
      "pat": 6181,
      "Ġ)": 6182,
      "indu": 6183,
      "ĠTre": 6184,
      "etics": 6185,
      "cell": 6186,
      "ĠHappy": 6187,
      "Ġexperiencing": 6188,
      "Ġ2002": 6189,
      "Ġ2005": 6190,
      "Ġaims": 6191,
      "Ġcomparison": 6192,
      "Ġdust": 6193,
      "Ġyield": 6194,
      "ĠSum": 6195,
      "ĠCath": 6196,
      "ĠExt": 6197,
      "ĠRen": 6198,
      "Ġship": 6199,
      "izer": 6200,
      "ansion": 6201,
      "Ġclients": 6202,
      "Ġartificial": 6203,
      "ĠComput": 6204,
      "Ġterror": 6205,
      "Ġpolitics": 6206,
      "Ġdemonstrated": 6207,
      "dd": 6208,
      "field": 6209,
      "inity": 6210,
      "ĠPop": 6211,
      "ĠBay": 6212,
      "Ġmeal": 6213,
      "ĠStand": 6214,
      "Ġproducing": 6215,
      "Ġgrand": 6216,
      "Ġaccounts": 6217,
      "Ġencourages": 6218,
      "Ġclaims": 6219,
      "ĠWriting": 6220,
      "PR": 6221,
      "nership": 6222,
      "erals": 6223,
      "alse": 6224,
      "ĠRich": 6225,
      "Ġarts": 6226,
      "ĠYet": 6227,
      "Ġages": 6228,
      "Ġlargely": 6229,
      "Ġoccurred": 6230,
      "Ġentirely": 6231,
      "Ġderived": 6232,
      "Ġclothing": 6233,
      "Ġenabling": 6234,
      "night": 6235,
      "under": 6236,
      "Ġtried": 6237,
      "Ġfant": 6238,
      "Ġlots": 6239,
      "Ġstock": 6240,
      "ĠSing": 6241,
      "amins": 6242,
      "Ġends": 6243,
      "ĠGold": 6244,
      "Ġclosed": 6245,
      "Ġflat": 6246,
      "Ġimmun": 6247,
      "Ġvoltage": 6248,
      "ĠUSA": 6249,
      "Ġwindow": 6250,
      "Ġthermal": 6251,
      "Ġoverwhel": 6252,
      "dis": 6253,
      "iability": 6254,
      "itory": 6255,
      "Ġdating": 6256,
      "ĠSal": 6257,
      "ĠPC": 6258,
      "agram": 6259,
      "soft": 6260,
      "Ġ190": 6261,
      "Ġsurfaces": 6262,
      "Ġpoem": 6263,
      "ounced": 6264,
      "ommod": 6265,
      "Ġbehaviour": 6266,
      "EL": 6267,
      "uis": 6268,
      "Ã³": 6269,
      "ÑĤ": 6270,
      "Ġfle": 6271,
      "Ġforget": 6272,
      "Ġenemy": 6273,
      "ĠLiter": 6274,
      "anged": 6275,
      "Ġraised": 6276,
      "Ġpresident": 6277,
      "Ġflood": 6278,
      "ĠSarah": 6279,
      "Ġtank": 6280,
      "Ġeast": 6281,
      "ĠScient": 6282,
      "ĠChem": 6283,
      "ĠMil": 6284,
      "Ġraw": 6285,
      "Ġsheet": 6286,
      "esterol": 6287,
      "bec": 6288,
      "rates": 6289,
      "xual": 6290,
      "Ġfashion": 6291,
      "cel": 6292,
      "eli": 6293,
      "ĠLand": 6294,
      "Ġkit": 6295,
      "endar": 6296,
      "Ġenthus": 6297,
      "Ġcuriosity": 6298,
      "coming": 6299,
      "Ġmetab": 6300,
      "Ġrealized": 6301,
      "ĠNews": 6302,
      "Ġdrink": 6303,
      "Ġaffecting": 6304,
      "Ġaccessible": 6305,
      "Ġrecorded": 6306,
      "Ġopinion": 6307,
      "ya": 6308,
      "ĠThanks": 6309,
      "ĠStart": 6310,
      "Ġobvious": 6311,
      "ographical": 6312,
      "Ġmeasured": 6313,
      "Ġobjective": 6314,
      "ĠMexico": 6315,
      "ĠProfessor": 6316,
      "friendly": 6317,
      "How": 6318,
      "Ġfing": 6319,
      "Ġrely": 6320,
      "ĠTor": 6321,
      "Ġnan": 6322,
      "Ġalike": 6323,
      "opl": 6324,
      "ĠHy": 6325,
      "Ġunknown": 6326,
      "Ġartist": 6327,
      "Ġentry": 6328,
      "ĠClin": 6329,
      "Ġagreement": 6330,
      "Ġsequence": 6331,
      "Ġath": 6332,
      "ician": 6333,
      "ĠSym": 6334,
      "Ġrub": 6335,
      "Ġroof": 6336,
      "Ġpositions": 6337,
      "ĠPhil": 6338,
      "Ġinfluenced": 6339,
      "ĠControl": 6340,
      "Ġdreams": 6341,
      "Ġcategories": 6342,
      "................": 6343,
      "Ġphilosophy": 6344,
      "ĠEnvironmental": 6345,
      "crib": 6346,
      "Ġmining": 6347,
      "Ġstated": 6348,
      "ĠClick": 6349,
      "anda": 6350,
      "Ġpersons": 6351,
      "Ġhundreds": 6352,
      "39": 6353,
      "44": 6354,
      "85": 6355,
      "Ġaer": 6356,
      "ĠIV": 6357,
      "Ġreliable": 6358,
      "Ġnoise": 6359,
      "Ġchildhood": 6360,
      "ĠUnf": 6361,
      "Ġclassic": 6362,
      "Ġmembr": 6363,
      "Ġcapabilities": 6364,
      "Ġobserve": 6365,
      "Ġcyber": 6366,
      "Ġvaccines": 6367,
      "ĠGoogle": 6368,
      "mel": 6369,
      "Ġpure": 6370,
      "Ġreven": 6371,
      "ida": 6372,
      "uli": 6373,
      "Ġuncertain": 6374,
      "ĠYes": 6375,
      "Ġorganized": 6376,
      "Ġdiscussing": 6377,
      "Ġyounger": 6378,
      "Ġrevealed": 6379,
      "Ġwisdom": 6380,
      "CO": 6381,
      "how": 6382,
      "long": 6383,
      "wing": 6384,
      "Ġtaste": 6385,
      "itus": 6386,
      "ormal": 6387,
      "Ġcarb": 6388,
      "Ġcenters": 6389,
      "Ġpainting": 6390,
      "Ġworksheets": 6391,
      "Ġmassive": 6392,
      "Ġobtained": 6393,
      "',": 6394,
      "IG": 6395,
      "ÃŃ": 6396,
      "itz": 6397,
      "ĠDan": 6398,
      "âĢĻ.": 6399,
      "ibly": 6400,
      "Ġdistingu": 6401,
      "Ġauthent": 6402,
      "Ġworksh": 6403,
      "apping": 6404,
      "Ġpreval": 6405,
      "Ġcollective": 6406,
      "gent": 6407,
      "alian": 6408,
      "etime": 6409,
      "ĠAccess": 6410,
      "Ġstation": 6411,
      "Ġattend": 6412,
      "Ġextended": 6413,
      "Ġgreatly": 6414,
      "Ġinfected": 6415,
      "eenth": 6416,
      "name": 6417,
      "win": 6418,
      "Ġmac": 6419,
      "ĠMo": 6420,
      "antly": 6421,
      "aph": 6422,
      "Ġkilled": 6423,
      "Ġbutter": 6424,
      "ucose": 6425,
      "Ġengaged": 6426,
      "Ġdescription": 6427,
      "Ġarrived": 6428,
      "Ġturning": 6429,
      "ĠAcad": 6430,
      "Ġinitiatives": 6431,
      "Ġbranches": 6432,
      "Ġneighbor": 6433,
      "Ġpretty": 6434,
      "86": 6435,
      "wood": 6436,
      "Ġchief": 6437,
      "Ġvalid": 6438,
      "Ġprotected": 6439,
      "Ġsuffer": 6440,
      "Ġemergency": 6441,
      "Ġsubstances": 6442,
      "Ġmixed": 6443,
      "Ġhabitat": 6444,
      "Ġpossibilities": 6445,
      "no": 6446,
      "Ġdut": 6447,
      "using": 6448,
      "ocracy": 6449,
      "ritis": 6450,
      "text": 6451,
      "Ġinterview": 6452,
      "Ġartistic": 6453,
      "Ġedge": 6454,
      "Ġpreventing": 6455,
      "ootnote": 6456,
      "Ġcontinuous": 6457,
      "Ġcompetition": 6458,
      "Ġminimize": 6459,
      "Ġvillage": 6460,
      "itors": 6461,
      "ĠHIV": 6462,
      "ĠLab": 6463,
      "Ġwors": 6464,
      "Ġcompr": 6465,
      "ĠUlt": 6466,
      "Ġflight": 6467,
      "Ġfounded": 6468,
      "ĠSpace": 6469,
      "Ġoperate": 6470,
      "Ġprotecting": 6471,
      "Ġfulf": 6472,
      "Ġil": 6473,
      "Ġwet": 6474,
      "Ġinject": 6475,
      "icking": 6476,
      "Ġheating": 6477,
      "Ġexpensive": 6478,
      "arsh": 6479,
      "Ġmatch": 6480,
      "Ġparalle": 6481,
      "Ġconsideration": 6482,
      "Ġphotos": 6483,
      "ĠTHE": 6484,
      "po": 6485,
      "west": 6486,
      "rooms": 6487,
      "Ġasp": 6488,
      "ĠBer": 6489,
      "Ġsuc": 6490,
      "Ġmyst": 6491,
      "Ġswim": 6492,
      "Ġheavily": 6493,
      "ocratic": 6494,
      "ĠPractice": 6495,
      "ĠRevolution": 6496,
      "ĠTexas": 6497,
      "Footnote": 6498,
      "ref": 6499,
      "oral": 6500,
      "Ġped": 6501,
      "Ġpump": 6502,
      "Ġliver": 6503,
      "ulin": 6504,
      "dule": 6505,
      "Ġaccum": 6506,
      "Ġinterventions": 6507,
      "Ġcrisis": 6508,
      "Ġconcerning": 6509,
      "ING": 6510,
      "ĠFamily": 6511,
      "eut": 6512,
      "urora": 6513,
      "Ġleaf": 6514,
      "Ġshad": 6515,
      "ĠThough": 6516,
      "Ġdoor": 6517,
      "Ġ500": 6518,
      "Ġfiles": 6519,
      "ĠMaybe": 6520,
      "ĠExample": 6521,
      "Ġforests": 6522,
      "Ġsupplies": 6523,
      "ĠService": 6524,
      "34": 6525,
      "requ": 6526,
      "atial": 6527,
      "Ġbones": 6528,
      "âĢ²": 6529,
      "Ġcloud": 6530,
      "Ġnewsp": 6531,
      "Ġsubt": 6532,
      "Ġcalories": 6533,
      "Ġsecondary": 6534,
      "Ġachieved": 6535,
      "Ġindicates": 6536,
      "Ġaccepted": 6537,
      "Ġagricultural": 6538,
      "ĠObject": 6539,
      "Ġsight": 6540,
      "Ġsides": 6541,
      "Ġbeings": 6542,
      "ĠIll": 6543,
      "ĠCR": 6544,
      "ĠMath": 6545,
      "ĠHam": 6546,
      "ĠLanguage": 6547,
      "Ġtea": 6548,
      "Ġstring": 6549,
      "Ġcontrovers": 6550,
      "Ġzero": 6551,
      "Ġthreats": 6552,
      "Ġmagnetic": 6553,
      "Ġhorse": 6554,
      "range": 6555,
      "Ġwants": 6556,
      "roc": 6557,
      "Ġnorthern": 6558,
      "Ġgram": 6559,
      "ĠAND": 6560,
      "ĠMa": 6561,
      "ĠMuseum": 6562,
      "alled": 6563,
      "ĠUt": 6564,
      "Ġaccommod": 6565,
      "Ġcurious": 6566,
      "Ġfunding": 6567,
      "Ġsurvival": 6568,
      "Ġpreparation": 6569,
      "ĠCreate": 6570,
      "Ġvessels": 6571,
      "ĠVirginia": 6572,
      "Ġcholesterol": 6573,
      ".|": 6574,
      "AP": 6575,
      "rus": 6576,
      "Ġwife": 6577,
      "ĠTer": 6578,
      "ĠBody": 6579,
      "Ġneut": 6580,
      "ĠNative": 6581,
      "Ġblocks": 6582,
      "Ġconstit": 6583,
      "Ġfunds": 6584,
      "64": 6585,
      "Ġsales": 6586,
      "esides": 6587,
      "Ġstability": 6588,
      "ĠSl": 6589,
      "iratory": 6590,
      "unning": 6591,
      "ĠLou": 6592,
      "Ġcalls": 6593,
      "Ġmarg": 6594,
      "Ġarguments": 6595,
      "Ġimplementing": 6596,
      "Ġremaining": 6597,
      "Ġroute": 6598,
      "Ġneighb": 6599,
      "Ġbudget": 6600,
      "99": 6601,
      "cons": 6602,
      "Ġwestern": 6603,
      "Ġinequ": 6604,
      "Ġgut": 6605,
      "ifest": 6606,
      "umin": 6607,
      "ĠRob": 6608,
      "Ġimper": 6609,
      "Ġexplo": 6610,
      "Ġabsolute": 6611,
      "Ġreturned": 6612,
      "Ġlaun": 6613,
      "Ġcryst": 6614,
      "Ġcul": 6615,
      "Ġcosm": 6616,
      "Ġwitness": 6617,
      "Ġhunt": 6618,
      "Ġstake": 6619,
      "osa": 6620,
      "ĠNor": 6621,
      "Ġsole": 6622,
      "Ġdesire": 6623,
      "Ġprison": 6624,
      "Ġpresents": 6625,
      "Ġformula": 6626,
      "Ġpossibility": 6627,
      "Ġdelivery": 6628,
      "ĠSea": 6629,
      "Ġexpressed": 6630,
      "Ġevaluate": 6631,
      "iotics": 6632,
      "Ġbreathing": 6633,
      "Ġvulnerable": 6634,
      "Ġstomach": 6635,
      "],": 6636,
      "chers": 6637,
      "mun": 6638,
      "Ġcort": 6639,
      "stone": 6640,
      "ĠMich": 6641,
      "Ġabstract": 6642,
      "Ġwilling": 6643,
      "Ġpartners": 6644,
      "itely": 6645,
      "Ġ2001": 6646,
      "Ġpresentation": 6647,
      "Ġcontributes": 6648,
      "Ġinfluences": 6649,
      "Ġstrategic": 6650,
      "Ġputting": 6651,
      "Ġcalculate": 6652,
      "ĠCharles": 6653,
      "Ġfacilitate": 6654,
      "Ġremarkable": 6655,
      "Ġsimultaneously": 6656,
      "Al": 6657,
      "inet": 6658,
      "ala": 6659,
      "ĠTogether": 6660,
      "ĠIN": 6661,
      "oding": 6662,
      "Ġintake": 6663,
      "Ġunlike": 6664,
      "ĠWhich": 6665,
      "Ġpharm": 6666,
      "Ġdepth": 6667,
      "ĠArmy": 6668,
      "ĠPlace": 6669,
      "Ġeconomics": 6670,
      "Ġcomplexity": 6671,
      "Ġconstantly": 6672,
      "ĠDiscuss": 6673,
      "Ar": 6674,
      "Ġwine": 6675,
      "Ġappoint": 6676,
      "Ġcream": 6677,
      "Ġ2004": 6678,
      "Ġrising": 6679,
      "Ġhomework": 6680,
      "which": 6681,
      "Ġwatching": 6682,
      "Ġfixed": 6683,
      "ĠMedicine": 6684,
      "ey": 6685,
      "htt": 6686,
      "net": 6687,
      "igare": 6688,
      "ĠSign": 6689,
      "Ġplenty": 6690,
      "Ġjoy": 6691,
      "Ġthereby": 6692,
      "Ġrelief": 6693,
      "Ġspecialized": 6694,
      "Ġargue": 6695,
      "ĠRegular": 6696,
      "Ġdrawn": 6697,
      "US": 6698,
      "books": 6699,
      "fall": 6700,
      "hma": 6701,
      "point": 6702,
      "with": 6703,
      "erative": 6704,
      "Ġwaves": 6705,
      "ĠEnd": 6706,
      "ĠDen": 6707,
      "Ġarmy": 6708,
      "Ġmyster": 6709,
      "Ġextensive": 6710,
      "Ġmonitor": 6711,
      "Ġdrinking": 6712,
      "Ġlimits": 6713,
      "Ġglobe": 6714,
      "Ġsections": 6715,
      "Ġvitamins": 6716,
      "ĠEmpire": 6717,
      "Ġaircraft": 6718,
      "Ġdoll": 6719,
      "uma": 6720,
      "Ġtrained": 6721,
      "Ġagencies": 6722,
      "Ġeffectiveness": 6723,
      "Ġguarant": 6724,
      "Ġopened": 6725,
      "ĠOffice": 6726,
      "=\"": 6727,
      "Welcome": 6728,
      "tra": 6729,
      "word": 6730,
      "Ġmuseum": 6731,
      "ĠIre": 6732,
      "Ġrural": 6733,
      "Ġcompounds": 6734,
      "Ġperman": 6735,
      "ĠAsk": 6736,
      "Ġholds": 6737,
      "ĠApplic": 6738,
      "Ġempower": 6739,
      "Ġcustomer": 6740,
      "Ġsurvive": 6741,
      "Ġrobust": 6742,
      "ĠBrazil": 6743,
      "ĠHelp": 6744,
      "Ġpreserving": 6745,
      "ĠUnfortunately": 6746,
      "fit": 6747,
      "ads": 6748,
      "ĠBro": 6749,
      "ĠBusiness": 6750,
      "ĠHoly": 6751,
      "Ġproduces": 6752,
      "ĠProper": 6753,
      "lessly": 6754,
      "Ġlisted": 6755,
      "Ġerrors": 6756,
      "Ġshaped": 6757,
      "Ġmicrob": 6758,
      "Ġevaluation": 6759,
      "Ġefficiently": 6760,
      "Ġcolonial": 6761,
      "Ġhypothes": 6762,
      "ĠGovernment": 6763,
      "iences": 6764,
      "onym": 6765,
      "Ġcrow": 6766,
      "Ġinherent": 6767,
      "arter": 6768,
      "Ġstored": 6769,
      "eless": 6770,
      "ĠMiss": 6771,
      "acles": 6772,
      "ĠDesc": 6773,
      "oviet": 6774,
      "Ġsupplement": 6775,
      "Ġmyth": 6776,
      "Ġobjectives": 6777,
      "ĠTeac": 6778,
      "Ġmovie": 6779,
      "Ġslowly": 6780,
      "Ġincorporate": 6781,
      "ometric": 6782,
      "Ġvibrant": 6783,
      "95": 6784,
      "heim": 6785,
      "Ġdental": 6786,
      "omer": 6787,
      "ameter": 6788,
      "Ġchick": 6789,
      "ocking": 6790,
      "ĠâĢĿ": 6791,
      "Ġimpossible": 6792,
      "Ġtraits": 6793,
      "Ġcontributing": 6794,
      "Ġenhancing": 6795,
      "Ġsymbols": 6796,
      "Ġirrit": 6797,
      "BC": 6798,
      "lights": 6799,
      "Ġbear": 6800,
      "âĢľ": 6801,
      "Ġvac": 6802,
      "ache": 6803,
      "aped": 6804,
      "Ġdisrupt": 6805,
      "Ġprem": 6806,
      "Ġpeoples": 6807,
      "Ġdecline": 6808,
      "Ġchoosing": 6809,
      "Ġsuperior": 6810,
      "Ġwebsites": 6811,
      "Ġdialogue": 6812,
      "Ġbarriers": 6813,
      "Im": 6814,
      "avery": 6815,
      "pres": 6816,
      "xid": 6817,
      "Ġcm": 6818,
      "Ġstick": 6819,
      "Ġorient": 6820,
      "Ġarter": 6821,
      "Ġprominent": 6822,
      "Ġturns": 6823,
      "Ġdebate": 6824,
      "iotic": 6825,
      "Ġmolecular": 6826,
      "Ġratio": 6827,
      "igrants": 6828,
      "ato": 6829,
      "Ġcoc": 6830,
      "Ġpair": 6831,
      "Ġfellow": 6832,
      "Ġbrown": 6833,
      "ĠCart": 6834,
      "ĠOF": 6835,
      "Ġchest": 6836,
      "Ġequation": 6837,
      "Ġprotocol": 6838,
      "Ġoccasion": 6839,
      "Ġslavery": 6840,
      "ĠOnly": 6841,
      "Ġholding": 6842,
      "world": 6843,
      "Ġframe": 6844,
      "Ġconversations": 6845,
      "Ġimmediate": 6846,
      "Ġevolved": 6847,
      "ĠPhysical": 6848,
      "ĠMicrosoft": 6849,
      "ĠFoundation": 6850,
      "IL": 6851,
      "aud": 6852,
      "ras": 6853,
      "ini": 6854,
      "oles": 6855,
      "Ġconven": 6856,
      "Ġunless": 6857,
      "ĠVict": 6858,
      "ĠView": 6859,
      "Ġregist": 6860,
      "Ġpracticing": 6861,
      "Ġdemands": 6862,
      "Ġplanting": 6863,
      "Ġhardware": 6864,
      "Ġliteracy": 6865,
      "Ġbigger": 6866,
      "Ġimplemented": 6867,
      "Ġethnic": 6868,
      "Ġnarrative": 6869,
      "Ġpreferences": 6870,
      "Ġalgorithms": 6871,
      "Ġacknowled": 6872,
      "ĠDigital": 6873,
      "hav": 6874,
      "pet": 6875,
      "Ð¸": 6876,
      "Ġsad": 6877,
      "ilization": 6878,
      "Ġgly": 6879,
      "ĠBack": 6880,
      "Ġhealing": 6881,
      "ĠOcean": 6882,
      "Ġapparent": 6883,
      "phone": 6884,
      "Ġglucose": 6885,
      "ĠImport": 6886,
      "Ġstructural": 6887,
      "Ġcombat": 6888,
      "ĠChristmas": 6889,
      "Ġminimum": 6890,
      "Ġcommitment": 6891,
      "Ġcamera": 6892,
      "zen": 6893,
      "Ã¶": 6894,
      "Ġsod": 6895,
      "Ġfurn": 6896,
      "Ġbread": 6897,
      "ĠNever": 6898,
      "ptions": 6899,
      "Ġinches": 6900,
      "asses": 6901,
      "Ġoutline": 6902,
      "oves": 6903,
      "Ġtransmission": 6904,
      "Ġinterf": 6905,
      "Ġwellbeing": 6906,
      "Ġsupports": 6907,
      "Ġcalm": 6908,
      "ĠJohns": 6909,
      "Ġindependence": 6910,
      "ĠCheck": 6911,
      "Ġtrials": 6912,
      "charge": 6913,
      "Ġintellectual": 6914,
      "ĠIreland": 6915,
      "kl": 6916,
      "tic": 6917,
      "ville": 6918,
      "Ġpup": 6919,
      "ione": 6920,
      "othe": 6921,
      "Ġarms": 6922,
      "Ġapplying": 6923,
      "hesis": 6924,
      "Ġinspect": 6925,
      "Ġobservations": 6926,
      "Ġhydro": 6927,
      "Ġcraf": 6928,
      "Ġsharp": 6929,
      "Ġtub": 6930,
      "lean": 6931,
      "asy": 6932,
      "uts": 6933,
      "Ġspending": 6934,
      "Ġevil": 6935,
      "Ġpartnership": 6936,
      "akespe": 6937,
      "Ġanalys": 6938,
      "Ġstatements": 6939,
      "Ġcorrectly": 6940,
      "Ġsoldiers": 6941,
      "Ġcategory": 6942,
      "Ġinstrument": 6943,
      "Ġlimitations": 6944,
      "Ġexperiments": 6945,
      "MP": 6946,
      "ht": 6947,
      "ran": 6948,
      "Ġtheore": 6949,
      "Ġcas": 6950,
      "Ġborder": 6951,
      "Ġmoon": 6952,
      "Ġintent": 6953,
      "Ġcomprom": 6954,
      "ibilities": 6955,
      "Ġassets": 6956,
      "Ġdecor": 6957,
      "Ġflav": 6958,
      "Ġfocusing": 6959,
      "Ġcontributions": 6960,
      "Ġbroken": 6961,
      "Ġinitially": 6962,
      "Ġteams": 6963,
      "Ġofficials": 6964,
      "ait": 6965,
      "gu": 6966,
      "Ġdensity": 6967,
      "Ġham": 6968,
      "urb": 6969,
      "âĢĻ,": 6970,
      "Ġnotable": 6971,
      "ĠSpring": 6972,
      "Ġserver": 6973,
      "Ġproductivity": 6974,
      "Ġhandling": 6975,
      "Ġsitting": 6976,
      "ĠFranc": 6977,
      "Ġidentifying": 6978,
      "Ġinspire": 6979,
      "Ġcounsel": 6980,
      "Ġbranch": 6981,
      "Ġstro": 6982,
      "iform": 6983,
      "Ġoral": 6984,
      "agues": 6985,
      "Ġovercome": 6986,
      "Ġdifferently": 6987,
      "Ġequally": 6988,
      "Ġcorrel": 6989,
      "Ġpromise": 6990,
      "Ġexplored": 6991,
      "Ġreceiving": 6992,
      "Ġsunlight": 6993,
      "Ġcapture": 6994,
      "Ġflexibility": 6995,
      "Ġrenewable": 6996,
      "Ġadequate": 6997,
      "Ġbio": 6998,
      "Ġdent": 6999,
      "Ġlingu": 7000,
      "ĠTV": 7001,
      "ĠTry": 7002,
      "olit": 7003,
      "olar": 7004,
      "Ġstrict": 7005,
      "ĠBab": 7006,
      "Ġride": 7007,
      "Ġcompassion": 7008,
      "Ġwhenever": 7009,
      "Ġrab": 7010,
      "Ġdistrict": 7011,
      "Ġconnecting": 7012,
      "Ġemployment": 7013,
      "sequent": 7014,
      "Ġdebt": 7015,
      "Ġfriendly": 7016,
      "CA": 7017,
      "effect": 7018,
      "itual": 7019,
      "Ġmixt": 7020,
      "otal": 7021,
      "Ġfever": 7022,
      "Ġreput": 7023,
      "Ġlegend": 7024,
      "Ġassociation": 7025,
      "Ġminds": 7026,
      "Ġprofessor": 7027,
      "Ġconsumer": 7028,
      "Ġmechanism": 7029,
      "scale": 7030,
      "Ġastron": 7031,
      "Ġkidney": 7032,
      "Ġpossibly": 7033,
      "Ġsucceed": 7034,
      "cher": 7035,
      "Ġvel": 7036,
      "Ġfav": 7037,
      "ĠNote": 7038,
      "ĠIns": 7039,
      "bert": 7040,
      "Ġequival": 7041,
      "Ġtemple": 7042,
      "Ġtempor": 7043,
      "ĠColor": 7044,
      "ĠÂ©": 7045,
      "ĠJews": 7046,
      "Ġmagic": 7047,
      "ĠRussian": 7048,
      "oom": 7049,
      "Ġprove": 7050,
      "Ġproceed": 7051,
      "Ġitem": 7052,
      "ĠMap": 7053,
      "ocity": 7054,
      "Ġadap": 7055,
      "asty": 7056,
      "Ġ31": 7057,
      "Ġ36": 7058,
      "Ġpool": 7059,
      "Ġmodule": 7060,
      "Ġmedieval": 7061,
      "Ġdepartment": 7062,
      "Ġ1990": 7063,
      "Ġintroduce": 7064,
      "Ġdeaths": 7065,
      "Ġoxid": 7066,
      "Ġblockchain": 7067,
      "Ġadministr": 7068,
      "Go": 7069,
      "body": 7070,
      "Ġid": 7071,
      "isher": 7072,
      "Ġhoney": 7073,
      "omin": 7074,
      "Ġnest": 7075,
      "uten": 7076,
      "Ġforg": 7077,
      "Ġhem": 7078,
      "Ġadverse": 7079,
      "elled": 7080,
      "ĠJose": 7081,
      "ĠAsian": 7082,
      "Ġacute": 7083,
      "Ġrequiring": 7084,
      "connect": 7085,
      "Ġmoves": 7086,
      "Ġinteractive": 7087,
      "Ġfemin": 7088,
      "ĠCourt": 7089,
      "akespeare": 7090,
      "CR": 7091,
      "Ġ\\": 7092,
      "Ġexcl": 7093,
      "ĠPub": 7094,
      "osph": 7095,
      "Ġcann": 7096,
      "ecess": 7097,
      "Ġtele": 7098,
      "Ġunus": 7099,
      "Ġpassing": 7100,
      "Ġperforming": 7101,
      "Ġcalendar": 7102,
      "Ġfewer": 7103,
      "Ġnecessarily": 7104,
      "ĠCommission": 7105,
      "Ġcaptiv": 7106,
      "Ġhydrogen": 7107,
      "Ġdivision": 7108,
      "Ġadopted": 7109,
      "Ġinclusive": 7110,
      "Ġqualities": 7111,
      "ĠAvoid": 7112,
      "Ġembracing": 7113,
      "ĠDisease": 7114,
      "BSD": 7115,
      "ael": 7116,
      "Ġcraft": 7117,
      "orph": 7118,
      "irms": 7119,
      "Ġwhatever": 7120,
      "ĠMalt": 7121,
      "âĢĶâĢĶ": 7122,
      "Ġemotion": 7123,
      "Ġdifficulties": 7124,
      "Ġbrand": 7125,
      "Ġlaboratory": 7126,
      "Ġfighting": 7127,
      "Ġphenomenon": 7128,
      "If": 7129,
      "nam": 7130,
      "Ġsought": 7131,
      "Ġpra": 7132,
      "Ġreform": 7133,
      "Ġgreek": 7134,
      "Ġusual": 7135,
      "endment": 7136,
      "Ġdishes": 7137,
      "Ġreson": 7138,
      "Ġresolution": 7139,
      "ordinary": 7140,
      "ĠAnalysis": 7141,
      "Ġserving": 7142,
      "Ġconfig": 7143,
      "Ġbringing": 7144,
      "ĠArticle": 7145,
      "Ġinstruments": 7146,
      "!\"": 7147,
      "chen": 7148,
      "gers": 7149,
      "Ġstreet": 7150,
      "ĠSoviet": 7151,
      "Ġunited": 7152,
      "avy": 7153,
      "ovascular": 7154,
      "Ġmedication": 7155,
      "Ġpractition": 7156,
      "Ġshowc": 7157,
      "Ġvariations": 7158,
      "Ġsafely": 7159,
      "Ġethics": 7160,
      "Ġexcessive": 7161,
      "Ġfro": 7162,
      "Ġfest": 7163,
      "Ġmales": 7164,
      "ĠTable": 7165,
      "Ġaccident": 7166,
      "Ġattached": 7167,
      "ĠReal": 7168,
      "Ġprofit": 7169,
      "espread": 7170,
      "ĠGrade": 7171,
      "Ġparameters": 7172,
      "Ġrepeated": 7173,
      "ĠStrateg": 7174,
      "Ġappeared": 7175,
      "Ġfossil": 7176,
      "van": 7177,
      "Ġtum": 7178,
      "inter": 7179,
      "Ġdrain": 7180,
      "ĠSqu": 7181,
      "ĠCast": 7182,
      "ĠEp": 7183,
      "ĠDid": 7184,
      "ĠLead": 7185,
      "Ġarise": 7186,
      "luding": 7187,
      "Ġscript": 7188,
      "Ġdioxide": 7189,
      "Ġtranslation": 7190,
      "Ġownership": 7191,
      "Ġrealize": 7192,
      "Ġinvestments": 7193,
      "ĠColumb": 7194,
      "Ġdomain": 7195,
      "Ġbalanced": 7196,
      "Ġsatell": 7197,
      "Ġpreparing": 7198,
      "Ġprincip": 7199,
      "ĠPortug": 7200,
      "Ġpaintings": 7201,
      "Ġmoisture": 7202,
      "Ġmitig": 7203,
      "ĠImpact": 7204,
      "Is": 7205,
      "iological": 7206,
      "Ġorg": 7207,
      "Ġagency": 7208,
      "Ġacids": 7209,
      "Ġdecent": 7210,
      "Ġpolar": 7211,
      "inson": 7212,
      "ĠProcess": 7213,
      "Ġsampling": 7214,
      "Ġarchae": 7215,
      "Ġengineers": 7216,
      "Ġpowers": 7217,
      "Ġrecommendations": 7218,
      "prene": 7219,
      "Ġroughness": 7220,
      "Ġmathematical": 7221,
      "such": 7222,
      "ĠÏ": 7223,
      "Ġpush": 7224,
      "Ġepid": 7225,
      "Ġgap": 7226,
      "Ġstable": 7227,
      "ĠSen": 7228,
      "ĠMethod": 7229,
      "Ġvote": 7230,
      "ĠLow": 7231,
      "plot": 7232,
      "ĠNAS": 7233,
      "Ġkg": 7234,
      "Ġquiet": 7235,
      "Ġdevelopments": 7236,
      "Ġdetection": 7237,
      "Ġmoments": 7238,
      "haust": 7239,
      "Ġhormone": 7240,
      "Ġvocabulary": 7241,
      "bot": 7242,
      "ua": 7243,
      "reprene": 7244,
      "lets": 7245,
      "Ġnose": 7246,
      "Ġgrew": 7247,
      "ĠAp": 7248,
      "ĠAurora": 7249,
      "Ġatom": 7250,
      "oster": 7251,
      "ffee": 7252,
      "Ġadvert": 7253,
      "ĠChange": 7254,
      "Ġmode": 7255,
      "Ġrespectively": 7256,
      "Ġpercentage": 7257,
      "Ġstrengthen": 7258,
      "Ġinspiration": 7259,
      "Ġcriminal": 7260,
      "itals": 7261,
      "Ġmine": 7262,
      "Ġeld": 7263,
      "ĠMass": 7264,
      "Ġcomplicated": 7265,
      "Ġworse": 7266,
      "ĠNatural": 7267,
      "Ġunw": 7268,
      "cium": 7269,
      "Ġrow": 7270,
      "Ġaddiction": 7271,
      "Ġsubsequent": 7272,
      "ĠConnect": 7273,
      "ĠPhot": 7274,
      "Ġchemistry": 7275,
      "Ġwaiting": 7276,
      "Ġtourism": 7277,
      "Ġwidespread": 7278,
      "?âĢĿ": 7279,
      "Americ": 7280,
      "CD": 7281,
      "bles": 7282,
      "fu": 7283,
      "Ġtro": 7284,
      "itt": 7285,
      "orter": 7286,
      "Ġfell": 7287,
      "ĠAR": 7288,
      "ĠGree": 7289,
      "Ġplate": 7290,
      "Ġadm": 7291,
      "Ġteen": 7292,
      "Ġsurve": 7293,
      "Ġpersonality": 7294,
      "Ġcriteria": 7295,
      "ohyd": 7296,
      "Ġdamaged": 7297,
      "ĠReading": 7298,
      "Ġwonderful": 7299,
      "zed": 7300,
      "aser": 7301,
      "ĠMer": 7302,
      "ĠFour": 7303,
      "ĠLake": 7304,
      "Ġshoot": 7305,
      "ĠGard": 7306,
      "iah": 7307,
      "Ġque": 7308,
      "Ġexplicit": 7309,
      "ĠImpro": 7310,
      "Ġrepresenting": 7311,
      "Ġhistoric": 7312,
      "Ġembark": 7313,
      "Ġnormally": 7314,
      "Ġreturns": 7315,
      "Ġemphasis": 7316,
      "ĠCommunity": 7317,
      "Ġdimensions": 7318,
      "Ġamidst": 7319,
      "].": 7320,
      "cur": 7321,
      "ket": 7322,
      "Ġton": 7323,
      "Ġdates": 7324,
      "ĠCamp": 7325,
      "ĠMill": 7326,
      "Ġclub": 7327,
      "ĠVer": 7328,
      "Ġtwice": 7329,
      "Ġtransc": 7330,
      "ropical": 7331,
      "Ġcurve": 7332,
      "ĠComple": 7333,
      "Ġsolving": 7334,
      "Ġ2003": 7335,
      "Ġorganisms": 7336,
      "Ġmarine": 7337,
      "Ġsentences": 7338,
      "Ġrobot": 7339,
      "Ġconflicts": 7340,
      "forcement": 7341,
      "Ġsongs": 7342,
      "ĠHistorical": 7343,
      "ĠRobert": 7344,
      "iated": 7345,
      "oir": 7346,
      "Ġshed": 7347,
      "urning": 7348,
      "ĠPoint": 7349,
      "Ġcompound": 7350,
      "Ġ34": 7351,
      "Ġagreed": 7352,
      "Ġentity": 7353,
      "Ġhumanity": 7354,
      "Ġavailability": 7355,
      "Ġbiggest": 7356,
      "Ġaccurately": 7357,
      "Ġwaters": 7358,
      "aired": 7359,
      "×Ļ": 7360,
      "ÙĦ": 7361,
      "Ġtact": 7362,
      "Ġsed": 7363,
      "itative": 7364,
      "Ġmild": 7365,
      "Ġdual": 7366,
      "Ġgone": 7367,
      "olving": 7368,
      "estine": 7369,
      "ocation": 7370,
      "Ġinvention": 7371,
      "Ġdefense": 7372,
      "Ġcorner": 7373,
      "Ġauthorities": 7374,
      "Ġachieving": 7375,
      "Ġanalyzing": 7376,
      "Ġminimal": 7377,
      "Ġmeasurement": 7378,
      "Ġadvancements": 7379,
      "Ġsessions": 7380,
      "ĠQuestions": 7381,
      ".;": 7382,
      "Fig": 7383,
      "liam": 7384,
      "ittle": 7385,
      "ĠTem": 7386,
      "Ġnu": 7387,
      "ota": 7388,
      "ĠSci": 7389,
      "ortion": 7390,
      "Ġseam": 7391,
      "Ġintrig": 7392,
      "Ġperception": 7393,
      "Ġpartner": 7394,
      "berry": 7395,
      "Ġactively": 7396,
      "ĠUnlike": 7397,
      "Ġexpansion": 7398,
      "ĠConsequently": 7399,
      "Ġdepict": 7400,
      "Ġmatrix": 7401,
      "ĠSelect": 7402,
      "ĠContin": 7403,
      "Ġcopper": 7404,
      "Ġcommitted": 7405,
      "Ġcarrying": 7406,
      "Ġadventures": 7407,
      "ĠBuilding": 7408,
      "Ġsubstantial": 7409,
      "Ġpandemic": 7410,
      "dem": 7411,
      "Ġreaching": 7412,
      "Ġgent": 7413,
      "chron": 7414,
      "ĠFall": 7415,
      "Ġencomp": 7416,
      "ĠRome": 7417,
      "Ġcontamin": 7418,
      "anger": 7419,
      "ĠYear": 7420,
      "Ġrespiratory": 7421,
      "Ġtreating": 7422,
      "Ġlights": 7423,
      "ĠTradition": 7424,
      "Ġconstructed": 7425,
      "Ġflexible": 7426,
      "Ġnucle": 7427,
      "Ġathlet": 7428,
      "77": 7429,
      "CH": 7430,
      "medi": 7431,
      "icago": 7432,
      "Ġnic": 7433,
      "Ġster": 7434,
      "ĠWik": 7435,
      "ĠDraw": 7436,
      "rian": 7437,
      "ereot": 7438,
      "Ġtwenty": 7439,
      "Ġcovers": 7440,
      "ceptions": 7441,
      "Ġdepos": 7442,
      "Ġmetals": 7443,
      "ĠActivity": 7444,
      "Ġmechanical": 7445,
      "Ġextraordinary": 7446,
      "Ġsatisf": 7447,
      "Ġtrouble": 7448,
      "ĠHenry": 7449,
      "box": 7450,
      "ugg": 7451,
      "Ġgall": 7452,
      "rays": 7453,
      "ĠSever": 7454,
      "ĠCE": 7455,
      "ĠWild": 7456,
      "Ġshot": 7457,
      "ipher": 7458,
      "Ġamer": 7459,
      "ĠPlay": 7460,
      "Ġexpressions": 7461,
      "Ġthrive": 7462,
      "Ġtailored": 7463,
      "Ġnitrogen": 7464,
      "fol": 7465,
      "kes": 7466,
      "ris": 7467,
      "ĠAge": 7468,
      "Ġstores": 7469,
      "ĠCrit": 7470,
      "Ġlect": 7471,
      "ĠNorthern": 7472,
      "ĠInvest": 7473,
      "aren": 7474,
      "Ġkne": 7475,
      "aked": 7476,
      "ults": 7477,
      "Ġdispar": 7478,
      "Ġclient": 7479,
      "Ġclock": 7480,
      "Ġunable": 7481,
      "ava": 7482,
      "ĠVit": 7483,
      "Ġindeed": 7484,
      "Ġworkplace": 7485,
      "Ġveter": 7486,
      "Ġmeasurements": 7487,
      "Ġintegrated": 7488,
      "ĠSpecial": 7489,
      "CS": 7490,
      "Ex": 7491,
      "Un": 7492,
      "Ġcash": 7493,
      "ĠAM": 7494,
      "Ġstre": 7495,
      "istical": 7496,
      "Ġintense": 7497,
      "ostic": 7498,
      "Ġwheel": 7499,
      "rowing": 7500,
      "Ġpersu": 7501,
      "Ġpreserve": 7502,
      "There": 7503,
      "Ġdetermination": 7504,
      "Ġenhanced": 7505,
      "Ġlandscapes": 7506,
      "Ġmanufacturers": 7507,
      "ĠWindows": 7508,
      "Ġinsects": 7509,
      "Ġschedule": 7510,
      "Ġneighborhood": 7511,
      "Sp": 7512,
      "TS": 7513,
      "ĠAS": 7514,
      "Ġdeploy": 7515,
      "Ġproven": 7516,
      "Ġvarieties": 7517,
      "Ġflour": 7518,
      "Ġowners": 7519,
      "Ġminerals": 7520,
      "ĠOrig": 7521,
      "Ġselecting": 7522,
      "ĠGuide": 7523,
      "Ġwarming": 7524,
      "Ġintegrity": 7525,
      "Ġtransactions": 7526,
      "esis": 7527,
      "ilation": 7528,
      "Ġgro": 7529,
      "sey": 7530,
      "ĠAL": 7531,
      "ĠDown": 7532,
      "Ġchances": 7533,
      "earing": 7534,
      "ressing": 7535,
      "Ġ300": 7536,
      "Ġattitudes": 7537,
      "Ġplanned": 7538,
      "theless": 7539,
      "Ġcontrols": 7540,
      "Ġruns": 7541,
      "Ġdifficulty": 7542,
      "Ġtherapeut": 7543,
      "Ġcontrolling": 7544,
      "Ġcorresponding": 7545,
      "Ġchromos": 7546,
      "ĠNASA": 7547,
      "500": 7548,
      "GB": 7549,
      "burg": 7550,
      "Ġpray": 7551,
      "anic": 7552,
      "ĠCH": 7553,
      "ĠBig": 7554,
      "ĠBeg": 7555,
      "Ġven": 7556,
      "andon": 7557,
      "ĠResp": 7558,
      "Ġshock": 7559,
      "Ġoutcome": 7560,
      "Ġempt": 7561,
      "Ġrocks": 7562,
      "Ġsocio": 7563,
      "Ġregulatory": 7564,
      "Ġweapons": 7565,
      "ĠCatholic": 7566,
      "uke": 7567,
      "yst": 7568,
      "Ġtone": 7569,
      "Ġsoph": 7570,
      "Ġbibl": 7571,
      "ĠMel": 7572,
      "uscript": 7573,
      "ĠLim": 7574,
      "ĠNations": 7575,
      "Ġplus": 7576,
      "ĠThings": 7577,
      "Ġappeal": 7578,
      "Ġforming": 7579,
      "ioxid": 7580,
      "Ġphysically": 7581,
      "Ġfaces": 7582,
      "Ġdanger": 7583,
      "Ġillustrate": 7584,
      "ĠChristianity": 7585,
      "Ġassignment": 7586,
      "Ġoriginally": 7587,
      "onomic": 7588,
      "Ġmembrane": 7589,
      "liament": 7590,
      ".âĢĻ": 7591,
      "Ph": 7592,
      "telling": 7593,
      "Ġfalse": 7594,
      "Ġble": 7595,
      "Ġboy": 7596,
      "Ġreward": 7597,
      "sts": 7598,
      "igue": 7599,
      "irus": 7600,
      "ample": 7601,
      "ĠYoung": 7602,
      "Ġencouraging": 7603,
      "Ġtargeted": 7604,
      "Ġrhyth": 7605,
      "Ġterritory": 7606,
      "hi": 7607,
      "Ġstones": 7608,
      "ĠMor": 7609,
      "Ġranging": 7610,
      "Ġcomposed": 7611,
      "ĠJul": 7612,
      "ĠStat": 7613,
      "taining": 7614,
      "Ġequality": 7615,
      "Ġconfident": 7616,
      "Ġdelay": 7617,
      "Ġanticip": 7618,
      "Ġsensitivity": 7619,
      "Ġvaccination": 7620,
      "working": 7621,
      "Ġmutual": 7622,
      "Ġgradually": 7623,
      "Ġbelonging": 7624,
      "ĠSupport": 7625,
      "Ġscenarios": 7626,
      "Ġmerely": 7627,
      "ĠMeanwhile": 7628,
      "ĠOhio": 7629,
      "kin": 7630,
      "rem": 7631,
      "Ġhob": 7632,
      "state": 7633,
      "Ġexhaust": 7634,
      "ĠPut": 7635,
      "ograp": 7636,
      "ĠChoose": 7637,
      "Ġadds": 7638,
      "Ġinstances": 7639,
      "Ġgray": 7640,
      "Ġguess": 7641,
      "Ġidentities": 7642,
      "Ġfinished": 7643,
      "ĠWithin": 7644,
      "Ġlinear": 7645,
      "Ġcleaning": 7646,
      "Ġnavigating": 7647,
      "Ġautomatically": 7648,
      "ĠSwed": 7649,
      "ĠCanadian": 7650,
      "Ġpreferred": 7651,
      "Ġlegislation": 7652,
      "Ġvictims": 7653,
      "ĠJohnson": 7654,
      ".'": 7655,
      "76": 7656,
      "Ġselling": 7657,
      "Ġinher": 7658,
      "Ġlatter": 7659,
      "Ġconvey": 7660,
      "Ġwithd": 7661,
      "ĠBank": 7662,
      "quality": 7663,
      "neum": 7664,
      "oving": 7665,
      "Ġdepart": 7666,
      "ĠWithout": 7667,
      "Ġcontainer": 7668,
      "Ġswitch": 7669,
      "Ġvisitors": 7670,
      "Ġinvestigation": 7671,
      "Ġinstalled": 7672,
      "Ġdominant": 7673,
      "ona": 7674,
      "itting": 7675,
      "Ġlens": 7676,
      "ĠMont": 7677,
      "thritis": 7678,
      "Ġrid": 7679,
      "Ġspin": 7680,
      "aval": 7681,
      "orses": 7682,
      "ĠItalian": 7683,
      "ĠForce": 7684,
      "Ġpositively": 7685,
      "Ġturb": 7686,
      "ĠWrite": 7687,
      "Ġuniversities": 7688,
      "melon": 7689,
      "ĠLouis": 7690,
      "48": 7691,
      "AB": 7692,
      "rat": 7693,
      "health": 7694,
      "icul": 7695,
      "Ġforth": 7696,
      "ĠBased": 7697,
      "ĠThree": 7698,
      "Ġmanifest": 7699,
      "Ġbutton": 7700,
      "Ġscore": 7701,
      "Ġresulted": 7702,
      "lishing": 7703,
      "ĠShould": 7704,
      "ĠClimate": 7705,
      "Ġviruses": 7706,
      "ĠSystems": 7707,
      "ĠMuslim": 7708,
      "Ġweakness": 7709,
      "Ġbonds": 7710,
      "Ġexhibit": 7711,
      "Ġparallel": 7712,
      "Ġmixture": 7713,
      "Ġtack": 7714,
      "rets": 7715,
      "esity": 7716,
      "Ġfract": 7717,
      "Ġbrows": 7718,
      "Ġeco": 7719,
      "ĠCase": 7720,
      "ĠCirc": 7721,
      "ada": 7722,
      "ĠDou": 7723,
      "Ġshares": 7724,
      "ĠJo": 7725,
      "ierarch": 7726,
      "Ġelection": 7727,
      "Ġhappiness": 7728,
      "Ġfunctioning": 7729,
      "Ġcontained": 7730,
      "Ġtrip": 7731,
      "Ġmistakes": 7732,
      "Ġsatisfact": 7733,
      "nia": 7734,
      "onal": 7735,
      "Ġcards": 7736,
      "Ġfer": 7737,
      "Ġbag": 7738,
      "Ġmamm": 7739,
      "ctu": 7740,
      "Ġrecept": 7741,
      "etary": 7742,
      "Ġstuff": 7743,
      "ĠMach": 7744,
      "ushed": 7745,
      "acies": 7746,
      "acco": 7747,
      "ĠLine": 7748,
      "ptic": 7749,
      "atively": 7750,
      "Ġhealthier": 7751,
      "Ġoblig": 7752,
      "Ġnorms": 7753,
      "Ġfitness": 7754,
      "Ġinvolvement": 7755,
      "Ġinterpretation": 7756,
      "ĠDifferent": 7757,
      "ĠFranklin": 7758,
      "ĠScholar": 7759,
      "yr": 7760,
      "Ġtube": 7761,
      "inction": 7762,
      "eness": 7763,
      "Ġwise": 7764,
      "Ġpig": 7765,
      "asters": 7766,
      "Ġlibr": 7767,
      "ĠCa": 7768,
      "ĠMos": 7769,
      "ĠMars": 7770,
      "duction": 7771,
      "Ġdispl": 7772,
      "Ġfeat": 7773,
      "Ġhighlights": 7774,
      "Ġherself": 7775,
      "Ġdirections": 7776,
      "Ġverb": 7777,
      "Ġfarming": 7778,
      "Ġearthqu": 7779,
      "Ġcelebrate": 7780,
      "Ġalgorithm": 7781,
      "Ġnursing": 7782,
      "Ġtutorial": 7783,
      "elihood": 7784,
      "ĠVictor": 7785,
      "MR": 7786,
      "eat": 7787,
      "ean": 7788,
      "Ġbath": 7789,
      "Ġdance": 7790,
      "Ġgast": 7791,
      "ĠSelf": 7792,
      "Ġsuns": 7793,
      "ĠFocus": 7794,
      "ĠFederal": 7795,
      "Ġneck": 7796,
      "Ġabandon": 7797,
      "Ġjump": 7798,
      "Ġouter": 7799,
      "Ġacting": 7800,
      "ĠAdminist": 7801,
      "Ġpassage": 7802,
      "Ġflower": 7803,
      "Ġaudiences": 7804,
      "Ġhazard": 7805,
      "ĠMartin": 7806,
      "Ġpoetry": 7807,
      "Ġinhabit": 7808,
      "Ġilleg": 7809,
      "ĠSeveral": 7810,
      "ION": 7811,
      "rary": 7812,
      "Ð½": 7813,
      "Ġom": 7814,
      "Ġhus": 7815,
      "Ġease": 7816,
      "ĠCat": 7817,
      "ĠProp": 7818,
      "Ġvig": 7819,
      "Ġchlor": 7820,
      "Ġran": 7821,
      "ĠInit": 7822,
      "Ġdecade": 7823,
      "Ġsupposed": 7824,
      "ĠCommit": 7825,
      "Ġrecognizing": 7826,
      "Ġintegration": 7827,
      "Ġjoined": 7828,
      "Ġpanel": 7829,
      "Ġopinions": 7830,
      "Ġcriticism": 7831,
      "Ġnervous": 7832,
      "Ġcooperation": 7833,
      "Ġmarginal": 7834,
      "Ġunusual": 7835,
      "rd": 7836,
      "asant": 7837,
      "ĠBest": 7838,
      "Ġsuit": 7839,
      "ĠHand": 7840,
      "onds": 7841,
      "Ġorigins": 7842,
      "Ġfrequent": 7843,
      "Ġcooling": 7844,
      "Ġjudgment": 7845,
      "ĠAuthor": 7846,
      "Ġspectrum": 7847,
      "Ġscenario": 7848,
      "Ġecosystems": 7849,
      "Ġdoubt": 7850,
      "ĠIslamic": 7851,
      "Ġauthentic": 7852,
      "list": 7853,
      "Ġsail": 7854,
      "oted": 7855,
      "Ġstereot": 7856,
      "Ġalph": 7857,
      "icals": 7858,
      "Ġplain": 7859,
      "Ġoutl": 7860,
      "venile": 7861,
      "Ġharmony": 7862,
      "Ġtargets": 7863,
      "Ġdiagnosed": 7864,
      "Google": 7865,
      "OD": 7866,
      "Ġbat": 7867,
      "Ġdil": 7868,
      "Ġdys": 7869,
      "Ġnine": 7870,
      "ĠMad": 7871,
      "asting": 7872,
      "Ġmanager": 7873,
      "Ġregulation": 7874,
      "Ġworlds": 7875,
      "Ġinsulin": 7876,
      "Ġpatience": 7877,
      "Ġentities": 7878,
      "Ġmeasuring": 7879,
      "Ġkeyboard": 7880,
      "ohn": 7881,
      "Ġcolleagues": 7882,
      "ediatric": 7883,
      "Ġwindows": 7884,
      "Ġcompetitive": 7885,
      "Ġsurroundings": 7886,
      "Ġinvestigate": 7887,
      "Ġgirl": 7888,
      "ĠFrancis": 7889,
      "but": 7890,
      "ml": 7891,
      "sm": 7892,
      "alities": 7893,
      "Ġlob": 7894,
      "ĠHor": 7895,
      "Ġintensity": 7896,
      "inder": 7897,
      "Ġsched": 7898,
      "Ġentreprene": 7899,
      "Ġcentre": 7900,
      "Ġtrend": 7901,
      "Ġverbs": 7902,
      "Ġdistributed": 7903,
      "Ġbabies": 7904,
      "ĠSurface": 7905,
      "Ġreplaced": 7906,
      "ocolate": 7907,
      "Ġphenomena": 7908,
      "ĠUltimately": 7909,
      "mod": 7910,
      "imp": 7911,
      "ifier": 7912,
      "ĠEU": 7913,
      "apor": 7914,
      "ĠNut": 7915,
      "ĠNeg": 7916,
      "ĠOx": 7917,
      "Ġcoffee": 7918,
      "Ġreflection": 7919,
      "Ġdesigning": 7920,
      "Ġplayer": 7921,
      "Ġpasseng": 7922,
      "Ġgrid": 7923,
      "Ġsensor": 7924,
      "Ġfarms": 7925,
      "ĠResearchers": 7926,
      "Ġalternatives": 7927,
      "Ġunders": 7928,
      "Ġdependent": 7929,
      "Ġexperimental": 7930,
      "Ġhorizon": 7931,
      "An": 7932,
      "RNA": 7933,
      "ĪĴ": 7934,
      "Ġcup": 7935,
      "ori": 7936,
      "Ġproof": 7937,
      "ĠPain": 7938,
      "ĠFil": 7939,
      "ĠFlu": 7940,
      "osion": 7941,
      "ĠStreet": 7942,
      "Ġrelation": 7943,
      "azon": 7944,
      "Ġmaintained": 7945,
      "Ġgreenhouse": 7946,
      "Ġcalculated": 7947,
      "ĠâĨ": 7948,
      "Ġmissing": 7949,
      "Ġcereb": 7950,
      "ĠConstitution": 7951,
      "Ġsenior": 7952,
      "Ġcardiovascular": 7953,
      "hal": 7954,
      "normal": 7955,
      "uh": 7956,
      "Ġbags": 7957,
      "Ġdirt": 7958,
      "ĠTom": 7959,
      "Ġgau": 7960,
      "ĠAP": 7961,
      "irds": 7962,
      "ĠPan": 7963,
      "Ġspok": 7964,
      "arding": 7965,
      "Ġtelev": 7966,
      "ĠItaly": 7967,
      "Ġaging": 7968,
      "Ġdemocracy": 7969,
      "century": 7970,
      "Ġtempl": 7971,
      "Ġkeeps": 7972,
      "Ġseemingly": 7973,
      "ĠCancer": 7974,
      "Ġreviews": 7975,
      "Ġfemales": 7976,
      "Ġprinted": 7977,
      "athered": 7978,
      "68": 7979,
      "Cl": 7980,
      "bar": 7981,
      "oice": 7982,
      "war": 7983,
      "ÑĢ": 7984,
      "ãģ": 7985,
      "hend": 7986,
      "ounce": 7987,
      "Ġda": 7988,
      "ĠTimes": 7989,
      "iments": 7990,
      "urse": 7991,
      "ĠMag": 7992,
      "ĠMoon": 7993,
      "ĠPeter": 7994,
      "ĠRom": 7995,
      "Ġsport": 7996,
      "ishop": 7997,
      "Ġrac": 7998,
      "cycl": 7999,
      "Ġflavor": 8000,
      "egu": 8001,
      "ĠAnaly": 8002,
      "Ġeastern": 8003,
      "Ġimmers": 8004,
      "Ġcalcium": 8005,
      "Ġbias": 8006,
      "ĠInteg": 8007,
      "Ġpopularity": 8008,
      "Ġencouraged": 8009,
      "ĠPerhaps": 8010,
      "Ġattempts": 8011,
      "ĠMusic": 8012,
      "Ġdiscipline": 8013,
      "CE": 8014,
      "real": 8015,
      "Ġwel": 8016,
      "asma": 8017,
      "ctic": 8018,
      "ĠType": 8019,
      "Ġnone": 8020,
      "ola": 8021,
      "ĠBal": 8022,
      "Ġ1960": 8023,
      "Ġgenu": 8024,
      "Ġassume": 8025,
      "Ġowner": 8026,
      "Ġresponsibilities": 8027,
      "Ġfalls": 8028,
      "regular": 8029,
      "ĠParty": 8030,
      "Ġdecreased": 8031,
      "Ġdatas": 8032,
      "Ġangle": 8033,
      "ĠSolar": 8034,
      "Ġobstacles": 8035,
      "Ġvolunteers": 8036,
      "Ġenthusi": 8037,
      "Ġcarbohyd": 8038,
      "Ġstakeholders": 8039,
      "gs": 8040,
      "pes": 8041,
      "Ġtip": 8042,
      "iture": 8043,
      "edge": 8044,
      "Ġhole": 8045,
      "Ġreject": 8046,
      "Ġnerve": 8047,
      "irty": 8048,
      "ĠPot": 8049,
      "ĠFire": 8050,
      "ĠLabor": 8051,
      "Ġunity": 8052,
      "Ġpeak": 8053,
      "ĠChall": 8054,
      "Ġ75": 8055,
      "Ġtexture": 8056,
      "Ġdietary": 8057,
      "Ġaudio": 8058,
      "Ġlaid": 8059,
      "ĠAgain": 8060,
      "Ġsilver": 8061,
      "fast": 8062,
      "Ġcaught": 8063,
      "Ġbiod": 8064,
      "Ġthread": 8065,
      "Ġles": 8066,
      "irmed": 8067,
      "ĠMic": 8068,
      "ĠMah": 8069,
      "acific": 8070,
      "ĠHyd": 8071,
      "ĠRight": 8072,
      "Ġneur": 8073,
      "rier": 8074,
      "ĠOl": 8075,
      "Ġunp": 8076,
      "Ġscores": 8077,
      "Ġcoach": 8078,
      "Ġcorn": 8079,
      "Ġdelicious": 8080,
      "Ġlegs": 8081,
      "Ġinvestors": 8082,
      "Ġfatigue": 8083,
      "Ġbacterial": 8084,
      "Ġuniversal": 8085,
      "Ġsession": 8086,
      "Ġsoul": 8087,
      "Ġmetabol": 8088,
      "Ġequivalent": 8089,
      "Ġtherapeutic": 8090,
      "door": 8091,
      "oys": 8092,
      "reens": 8093,
      "erb": 8094,
      "anth": 8095,
      "Ġlosing": 8096,
      "Ġgases": 8097,
      "Ġcompens": 8098,
      "Ġrecru": 8099,
      "Ġscal": 8100,
      "Ġadvances": 8101,
      "airy": 8102,
      "Ġfinance": 8103,
      "Ġdirector": 8104,
      "Ġassessments": 8105,
      "Ġutilize": 8106,
      "Ġmountains": 8107,
      "Ġmotivation": 8108,
      "ĠBetween": 8109,
      "Ġtheoretical": 8110,
      "89": 8111,
      "def": 8112,
      "nov": 8113,
      "heast": 8114,
      "onial": 8115,
      "Ġow": 8116,
      "Ġpounds": 8117,
      "ĠSV": 8118,
      "ĠCS": 8119,
      "ĠPak": 8120,
      "plant": 8121,
      "outs": 8122,
      "ustain": 8123,
      "Ġoverview": 8124,
      "Ġnewly": 8125,
      "Ġexamined": 8126,
      "Ġpublication": 8127,
      "Ġabsence": 8128,
      "Ġphotograph": 8129,
      "Ġquantum": 8130,
      "Ġasthma": 8131,
      "ĠFollowing": 8132,
      "Ġvelocity": 8133,
      "iations": 8134,
      "Ġske": 8135,
      "Ġhierarch": 8136,
      "ĠAC": 8137,
      "Ġspark": 8138,
      "ĠOper": 8139,
      "Ġpeers": 8140,
      "ĠKids": 8141,
      "weight": 8142,
      "Ġflag": 8143,
      "ega": 8144,
      "Ġautism": 8145,
      "Ġmeters": 8146,
      "Ġbreaking": 8147,
      "Ġcontributed": 8148,
      "Ġprotective": 8149,
      "Ġsensors": 8150,
      "ĠBeing": 8151,
      "ĠAssess": 8152,
      "ĠDepression": 8153,
      "Ġstruggles": 8154,
      "Ġexpanded": 8155,
      "Ġnutrient": 8156,
      "Ġreinfor": 8157,
      "Ġsuddenly": 8158,
      "05": 8159,
      "iac": 8160,
      "rine": 8161,
      "Ġnice": 8162,
      "Ġgal": 8163,
      "ĠIde": 8164,
      "ema": 8165,
      "ĠRole": 8166,
      "Ġcolour": 8167,
      "Ġindirect": 8168,
      "Ġscan": 8169,
      "Ġattitude": 8170,
      "Ġminute": 8171,
      "Ġtales": 8172,
      "Ġembed": 8173,
      "Ġphoto": 8174,
      "ĠReport": 8175,
      "Ġcovering": 8176,
      "ĠFlor": 8177,
      "Ġmagical": 8178,
      "Ġcelebrated": 8179,
      "Ġargumentative": 8180,
      "Ġhonest": 8181,
      "Ġmathematics": 8182,
      "Ġfuels": 8183,
      "47": 8184,
      "FR": 8185,
      "GA": 8186,
      "OM": 8187,
      "cal": 8188,
      "oids": 8189,
      "Ġwww": 8190,
      "Ġreign": 8191
    },
    "merges": [
      [
        "Ġ",
        "t"
      ],
      [
        "Ġ",
        "a"
      ],
      [
        "i",
        "n"
      ],
      [
        "h",
        "e"
      ],
      [
        "r",
        "e"
      ],
      [
        "o",
        "n"
      ],
      [
        "Ġt",
        "he"
      ],
      [
        "e",
        "r"
      ],
      [
        "Ġ",
        "s"
      ],
      [
        "a",
        "t"
      ],
      [
        "Ġ",
        "o"
      ],
      [
        "e",
        "n"
      ],
      [
        "Ġ",
        "c"
      ],
      [
        "e",
        "s"
      ],
      [
        "n",
        "d"
      ],
      [
        "Ġ",
        "w"
      ],
      [
        "i",
        "t"
      ],
      [
        "in",
        "g"
      ],
      [
        "i",
        "s"
      ],
      [
        "o",
        "r"
      ],
      [
        "a",
        "l"
      ],
      [
        "Ġ",
        "p"
      ],
      [
        "a",
        "n"
      ],
      [
        "Ġ",
        "f"
      ],
      [
        "o",
        "u"
      ],
      [
        "Ġ",
        "b"
      ],
      [
        "e",
        "d"
      ],
      [
        "Ġo",
        "f"
      ],
      [
        "Ġ",
        "in"
      ],
      [
        "a",
        "r"
      ],
      [
        "Ġ",
        "m"
      ],
      [
        "Ġa",
        "nd"
      ],
      [
        "i",
        "c"
      ],
      [
        "i",
        "on"
      ],
      [
        "Ġt",
        "o"
      ],
      [
        "Ġ",
        "d"
      ],
      [
        "l",
        "e"
      ],
      [
        "r",
        "o"
      ],
      [
        "en",
        "t"
      ],
      [
        "a",
        "s"
      ],
      [
        "Ġ",
        "h"
      ],
      [
        "Ġ",
        "e"
      ],
      [
        "c",
        "t"
      ],
      [
        "Ġt",
        "h"
      ],
      [
        "Ġ",
        "re"
      ],
      [
        "o",
        "m"
      ],
      [
        "i",
        "l"
      ],
      [
        "v",
        "e"
      ],
      [
        "Ġ",
        "l"
      ],
      [
        "s",
        "t"
      ],
      [
        "Ġ",
        "T"
      ],
      [
        "Ġ",
        "n"
      ],
      [
        "e",
        "t"
      ],
      [
        "l",
        "y"
      ],
      [
        "at",
        "ion"
      ],
      [
        "Ġ",
        "g"
      ],
      [
        "s",
        "e"
      ],
      [
        "Ġ",
        "is"
      ],
      [
        "o",
        "l"
      ],
      [
        "i",
        "m"
      ],
      [
        "i",
        "d"
      ],
      [
        "c",
        "e"
      ],
      [
        "Ġ",
        "A"
      ],
      [
        "r",
        "a"
      ],
      [
        "o",
        "w"
      ],
      [
        "Ġb",
        "e"
      ],
      [
        "u",
        "r"
      ],
      [
        "u",
        "t"
      ],
      [
        "i",
        "g"
      ],
      [
        "Ġ",
        "y"
      ],
      [
        "c",
        "h"
      ],
      [
        "â",
        "Ģ"
      ],
      [
        "Ġ",
        "I"
      ],
      [
        "Ġ",
        "u"
      ],
      [
        "o",
        "t"
      ],
      [
        "Ġs",
        "t"
      ],
      [
        "Ġ",
        "S"
      ],
      [
        "Ġf",
        "or"
      ],
      [
        "v",
        "er"
      ],
      [
        "Ġ",
        "on"
      ],
      [
        "Ġy",
        "ou"
      ],
      [
        "u",
        "l"
      ],
      [
        "i",
        "r"
      ],
      [
        "Ġ",
        "C"
      ],
      [
        "a",
        "y"
      ],
      [
        "Ġth",
        "at"
      ],
      [
        "it",
        "h"
      ],
      [
        "e",
        "l"
      ],
      [
        "Ġc",
        "on"
      ],
      [
        "a",
        "m"
      ],
      [
        "Ġa",
        "s"
      ],
      [
        "ĠT",
        "he"
      ],
      [
        "Ġp",
        "ro"
      ],
      [
        "i",
        "f"
      ],
      [
        "Ġw",
        "ith"
      ],
      [
        "he",
        "r"
      ],
      [
        "Ġa",
        "n"
      ],
      [
        "Ġo",
        "r"
      ],
      [
        "a",
        "d"
      ],
      [
        "es",
        "s"
      ],
      [
        "t",
        "er"
      ],
      [
        "Ġw",
        "h"
      ],
      [
        "Ġ",
        "it"
      ],
      [
        "Ġa",
        "re"
      ],
      [
        "Ġa",
        "l"
      ],
      [
        "m",
        "ent"
      ],
      [
        "Ġe",
        "x"
      ],
      [
        "o",
        "d"
      ],
      [
        "i",
        "es"
      ],
      [
        "g",
        "e"
      ],
      [
        "Ġ",
        "M"
      ],
      [
        "er",
        "s"
      ],
      [
        "at",
        "e"
      ],
      [
        "Ġ",
        "P"
      ],
      [
        "is",
        "t"
      ],
      [
        "Ġc",
        "om"
      ],
      [
        "Ġ",
        "B"
      ],
      [
        "e",
        "ct"
      ],
      [
        "Ġd",
        "e"
      ],
      [
        "a",
        "b"
      ],
      [
        "Ġ",
        "W"
      ],
      [
        "u",
        "s"
      ],
      [
        "t",
        "h"
      ],
      [
        "it",
        "y"
      ],
      [
        "Ġ",
        "he"
      ],
      [
        "o",
        "p"
      ],
      [
        "re",
        "s"
      ],
      [
        "Ġ",
        "v"
      ],
      [
        "Ġ",
        "("
      ],
      [
        "Ġs",
        "u"
      ],
      [
        "i",
        "ve"
      ],
      [
        "il",
        "l"
      ],
      [
        "q",
        "u"
      ],
      [
        "i",
        "v"
      ],
      [
        "k",
        "e"
      ],
      [
        "Ġw",
        "e"
      ],
      [
        "o",
        "re"
      ],
      [
        "Ġ",
        "1"
      ],
      [
        "e",
        "m"
      ],
      [
        "a",
        "c"
      ],
      [
        "Ġ",
        "H"
      ],
      [
        "a",
        "in"
      ],
      [
        "es",
        "t"
      ],
      [
        "p",
        "p"
      ],
      [
        "an",
        "t"
      ],
      [
        "a",
        "nd"
      ],
      [
        "ig",
        "h"
      ],
      [
        "Ġ",
        "F"
      ],
      [
        "u",
        "m"
      ],
      [
        "o",
        "s"
      ],
      [
        "Ġ",
        "E"
      ],
      [
        "Ġc",
        "an"
      ],
      [
        "Ġ",
        "D"
      ],
      [
        "i",
        "al"
      ],
      [
        "l",
        "d"
      ],
      [
        "n",
        "t"
      ],
      [
        "Ġc",
        "h"
      ],
      [
        "ro",
        "m"
      ],
      [
        "o",
        "c"
      ],
      [
        "u",
        "d"
      ],
      [
        "or",
        "t"
      ],
      [
        "Ġb",
        "y"
      ],
      [
        "Ġ",
        "en"
      ],
      [
        "ic",
        "al"
      ],
      [
        "âĢ",
        "Ļ"
      ],
      [
        "Ġ",
        "le"
      ],
      [
        "Ġ",
        "R"
      ],
      [
        "u",
        "re"
      ],
      [
        "Ġh",
        "a"
      ],
      [
        "Ġn",
        "e"
      ],
      [
        "Ġ",
        "r"
      ],
      [
        "u",
        "n"
      ],
      [
        "Ġs",
        "e"
      ],
      [
        "Ġa",
        "t"
      ],
      [
        "Ġ",
        "-"
      ],
      [
        "Ġf",
        "rom"
      ],
      [
        "ar",
        "t"
      ],
      [
        "ion",
        "s"
      ],
      [
        "o",
        "g"
      ],
      [
        "r",
        "ou"
      ],
      [
        "Ġ",
        "L"
      ],
      [
        "Ġ",
        "âĢ"
      ],
      [
        "Ġs",
        "h"
      ],
      [
        "r",
        "i"
      ],
      [
        "Ġyou",
        "r"
      ],
      [
        "p",
        "l"
      ],
      [
        "Ġ",
        "2"
      ],
      [
        "igh",
        "t"
      ],
      [
        "a",
        "p"
      ],
      [
        "Ġw",
        "or"
      ],
      [
        "Ġ",
        "N"
      ],
      [
        "Ġth",
        "is"
      ],
      [
        "-",
        "-"
      ],
      [
        "Ġa",
        "b"
      ],
      [
        "Ġ",
        "G"
      ],
      [
        "Ġ",
        "im"
      ],
      [
        "Ġs",
        "p"
      ],
      [
        "g",
        "h"
      ],
      [
        "ou",
        "t"
      ],
      [
        "Ġw",
        "as"
      ],
      [
        "al",
        "l"
      ],
      [
        "a",
        "g"
      ],
      [
        "e",
        "re"
      ],
      [
        "Ġ",
        "O"
      ],
      [
        "Ġin",
        "t"
      ],
      [
        "i",
        "z"
      ],
      [
        "Ġha",
        "ve"
      ],
      [
        "a",
        "ct"
      ],
      [
        "ou",
        "r"
      ],
      [
        "Ġp",
        "l"
      ],
      [
        "in",
        "e"
      ],
      [
        "Ġu",
        "s"
      ],
      [
        "om",
        "e"
      ],
      [
        "d",
        "u"
      ],
      [
        "Ġn",
        "ot"
      ],
      [
        "Ġthe",
        "ir"
      ],
      [
        "ĠI",
        "n"
      ],
      [
        "ĠT",
        "h"
      ],
      [
        "p",
        "t"
      ],
      [
        "a",
        "re"
      ],
      [
        "p",
        "er"
      ],
      [
        "ar",
        "d"
      ],
      [
        "a",
        "ge"
      ],
      [
        "ou",
        "s"
      ],
      [
        "t",
        "her"
      ],
      [
        "ation",
        "s"
      ],
      [
        "o",
        "st"
      ],
      [
        "ic",
        "h"
      ],
      [
        "f",
        "f"
      ],
      [
        "at",
        "ed"
      ],
      [
        "id",
        "e"
      ],
      [
        "an",
        "s"
      ],
      [
        "Ġcon",
        "t"
      ],
      [
        "u",
        "st"
      ],
      [
        "Ġa",
        "d"
      ],
      [
        "Ġ",
        "k"
      ],
      [
        "Ġcom",
        "p"
      ],
      [
        "el",
        "l"
      ],
      [
        "a",
        "k"
      ],
      [
        "Ġw",
        "he"
      ],
      [
        "ou",
        "ld"
      ],
      [
        "i",
        "p"
      ],
      [
        "en",
        "d"
      ],
      [
        "ul",
        "t"
      ],
      [
        "Ġthe",
        "y"
      ],
      [
        "'",
        "s"
      ],
      [
        "e",
        "c"
      ],
      [
        "Ġd",
        "is"
      ],
      [
        "as",
        "t"
      ],
      [
        "Ġin",
        "c"
      ],
      [
        "an",
        "ce"
      ],
      [
        "i",
        "b"
      ],
      [
        "r",
        "u"
      ],
      [
        "Ġre",
        "s"
      ],
      [
        "Ġw",
        "ill"
      ],
      [
        "c",
        "c"
      ],
      [
        "Ġal",
        "l"
      ],
      [
        "u",
        "al"
      ],
      [
        "ve",
        "l"
      ],
      [
        "on",
        "g"
      ],
      [
        "Ġ",
        "U"
      ],
      [
        "or",
        "m"
      ],
      [
        "e",
        "ar"
      ],
      [
        "0",
        "0"
      ],
      [
        "ab",
        "le"
      ],
      [
        "Ġwh",
        "ich"
      ],
      [
        "Ġm",
        "e"
      ],
      [
        "k",
        "s"
      ],
      [
        "en",
        "ce"
      ],
      [
        "ar",
        "y"
      ],
      [
        "e",
        "p"
      ],
      [
        "Ġim",
        "p"
      ],
      [
        "i",
        "e"
      ],
      [
        "o",
        "od"
      ],
      [
        "in",
        "d"
      ],
      [
        "re",
        "at"
      ],
      [
        "ent",
        "s"
      ],
      [
        "Ġt",
        "e"
      ],
      [
        "Ġm",
        "an"
      ],
      [
        "Ġc",
        "l"
      ],
      [
        "ig",
        "n"
      ],
      [
        "Ġm",
        "ore"
      ],
      [
        "Ġd",
        "o"
      ],
      [
        "i",
        "re"
      ],
      [
        "Ġ",
        "j"
      ],
      [
        "a",
        "ch"
      ],
      [
        "i",
        "a"
      ],
      [
        "Ġ",
        "J"
      ],
      [
        "r",
        "y"
      ],
      [
        "s",
        "o"
      ],
      [
        "Ġu",
        "n"
      ],
      [
        "i",
        "ke"
      ],
      [
        "Ġo",
        "ther"
      ],
      [
        "Ġh",
        "as"
      ],
      [
        "Ġab",
        "out"
      ],
      [
        "ct",
        "ion"
      ],
      [
        "o",
        "o"
      ],
      [
        "c",
        "es"
      ],
      [
        "res",
        "s"
      ],
      [
        "as",
        "s"
      ],
      [
        "it",
        "ion"
      ],
      [
        "Ġa",
        "r"
      ],
      [
        "Ġa",
        "pp"
      ],
      [
        "a",
        "v"
      ],
      [
        "at",
        "er"
      ],
      [
        "im",
        "e"
      ],
      [
        "Ġp",
        "er"
      ],
      [
        "a",
        "ke"
      ],
      [
        "ver",
        "y"
      ],
      [
        "Ġb",
        "ut"
      ],
      [
        "il",
        "d"
      ],
      [
        "ĠTh",
        "is"
      ],
      [
        "Ġal",
        "so"
      ],
      [
        "r",
        "it"
      ],
      [
        "Ġo",
        "ut"
      ],
      [
        "ic",
        "e"
      ],
      [
        "Ġs",
        "o"
      ],
      [
        "nd",
        "er"
      ],
      [
        "or",
        "y"
      ],
      [
        "on",
        "e"
      ],
      [
        "or",
        "s"
      ],
      [
        "Ġe",
        "v"
      ],
      [
        "ĠI",
        "t"
      ],
      [
        "i",
        "le"
      ],
      [
        "Ġp",
        "re"
      ],
      [
        "Ġp",
        "art"
      ],
      [
        "Ġthe",
        "m"
      ],
      [
        "Ġon",
        "e"
      ],
      [
        "Ġcom",
        "m"
      ],
      [
        "Ġst",
        "ud"
      ],
      [
        "en",
        "s"
      ],
      [
        "ĠS",
        "t"
      ],
      [
        "n",
        "ow"
      ],
      [
        "a",
        "ce"
      ],
      [
        "Ġs",
        "y"
      ],
      [
        "u",
        "e"
      ],
      [
        "as",
        "e"
      ],
      [
        "f",
        "orm"
      ],
      [
        ".",
        "."
      ],
      [
        "if",
        "f"
      ],
      [
        "a",
        "u"
      ],
      [
        "Ġl",
        "ike"
      ],
      [
        "Ġthe",
        "se"
      ],
      [
        "Ġint",
        "o"
      ],
      [
        "Ġ",
        "qu"
      ],
      [
        "ing",
        "s"
      ],
      [
        "rou",
        "gh"
      ],
      [
        "Ġf",
        "e"
      ],
      [
        "Ġh",
        "ow"
      ],
      [
        "c",
        "i"
      ],
      [
        "ac",
        "k"
      ],
      [
        "o",
        "se"
      ],
      [
        "Ġp",
        "e"
      ],
      [
        "ol",
        "og"
      ],
      [
        "it",
        "ies"
      ],
      [
        "ĠâĢ",
        "ľ"
      ],
      [
        "âĢ",
        "Ŀ"
      ],
      [
        "--",
        "--"
      ],
      [
        "ay",
        "s"
      ],
      [
        "b",
        "er"
      ],
      [
        "r",
        "ic"
      ],
      [
        "Ġt",
        "ra"
      ],
      [
        "Ġu",
        "p"
      ],
      [
        "or",
        "d"
      ],
      [
        "an",
        "g"
      ],
      [
        "l",
        "ow"
      ],
      [
        "Ġe",
        "m"
      ],
      [
        "ou",
        "nt"
      ],
      [
        "re",
        "e"
      ],
      [
        "is",
        "h"
      ],
      [
        "at",
        "ing"
      ],
      [
        "Ġwe",
        "re"
      ],
      [
        "Ġo",
        "ur"
      ],
      [
        "k",
        "ing"
      ],
      [
        "ou",
        "nd"
      ],
      [
        "Ġ",
        "ro"
      ],
      [
        "Ġd",
        "iff"
      ],
      [
        "Ġwh",
        "o"
      ],
      [
        "Ġ",
        "Y"
      ],
      [
        "Ġbe",
        "c"
      ],
      [
        "if",
        "ic"
      ],
      [
        "Ġu",
        "nder"
      ],
      [
        "Ġb",
        "et"
      ],
      [
        "Ġhe",
        "l"
      ],
      [
        "Ġs",
        "ome"
      ],
      [
        "ment",
        "s"
      ],
      [
        "Ġt",
        "r"
      ],
      [
        "Ġwhe",
        "n"
      ],
      [
        "Ġit",
        "s"
      ],
      [
        "am",
        "e"
      ],
      [
        "Ġ",
        "K"
      ],
      [
        "it",
        "e"
      ],
      [
        "Ġthe",
        "re"
      ],
      [
        "Ġt",
        "ime"
      ],
      [
        "Ġm",
        "ay"
      ],
      [
        "Ġhel",
        "p"
      ],
      [
        "ĠC",
        "h"
      ],
      [
        "l",
        "es"
      ],
      [
        "Ġ",
        "3"
      ],
      [
        "op",
        "le"
      ],
      [
        "Ġre",
        "c"
      ],
      [
        "on",
        "s"
      ],
      [
        "Ġcon",
        "s"
      ],
      [
        "n",
        "ing"
      ],
      [
        "p",
        "h"
      ],
      [
        "u",
        "b"
      ],
      [
        "Ġc",
        "ol"
      ],
      [
        "ou",
        "gh"
      ],
      [
        "a",
        "il"
      ],
      [
        "Ġre",
        "l"
      ],
      [
        "at",
        "es"
      ],
      [
        "Ġ",
        "\""
      ],
      [
        "Ġk",
        "now"
      ],
      [
        "w",
        "e"
      ],
      [
        "Ġo",
        "ver"
      ],
      [
        "al",
        "ly"
      ],
      [
        "n",
        "e"
      ],
      [
        "Ġd",
        "es"
      ],
      [
        "i",
        "ous"
      ],
      [
        ")",
        "."
      ],
      [
        "le",
        "ct"
      ],
      [
        "Ġa",
        "ct"
      ],
      [
        "Ġ",
        "V"
      ],
      [
        "l",
        "ud"
      ],
      [
        "on",
        "d"
      ],
      [
        "Ġsu",
        "ch"
      ],
      [
        "Ġh",
        "is"
      ],
      [
        "m",
        "s"
      ],
      [
        "Ġth",
        "an"
      ],
      [
        "y",
        "s"
      ],
      [
        "ĠW",
        "h"
      ],
      [
        "Ġa",
        "g"
      ],
      [
        "er",
        "v"
      ],
      [
        "al",
        "th"
      ],
      [
        "Ġin",
        "d"
      ],
      [
        "Ġg",
        "o"
      ],
      [
        "l",
        "l"
      ],
      [
        "t",
        "s"
      ],
      [
        "Ġth",
        "rough"
      ],
      [
        "Ġa",
        "cc"
      ],
      [
        "ff",
        "ect"
      ],
      [
        "Ġpe",
        "ople"
      ],
      [
        "f",
        "ul"
      ],
      [
        "rou",
        "nd"
      ],
      [
        "Ġ",
        "ra"
      ],
      [
        "p",
        "le"
      ],
      [
        "ter",
        "n"
      ],
      [
        "ur",
        "ing"
      ],
      [
        "Ġu",
        "se"
      ],
      [
        "Ġ2",
        "0"
      ],
      [
        "Ġwh",
        "at"
      ],
      [
        "ul",
        "ar"
      ],
      [
        "ver",
        "s"
      ],
      [
        "i",
        "an"
      ],
      [
        "Ġa",
        "m"
      ],
      [
        "c",
        "ess"
      ],
      [
        "ic",
        "s"
      ],
      [
        "at",
        "ive"
      ],
      [
        "o",
        "ve"
      ],
      [
        "Ġne",
        "ed"
      ],
      [
        "y",
        "p"
      ],
      [
        "ro",
        "w"
      ],
      [
        "o",
        "b"
      ],
      [
        "st",
        "em"
      ],
      [
        "j",
        "ect"
      ],
      [
        "vel",
        "op"
      ],
      [
        "Ġdiff",
        "ere"
      ],
      [
        "t",
        "e"
      ],
      [
        "u",
        "res"
      ],
      [
        "re",
        "n"
      ],
      [
        "Ġne",
        "w"
      ],
      [
        "il",
        "ity"
      ],
      [
        "Ġinc",
        "lud"
      ],
      [
        "Ġ1",
        "9"
      ],
      [
        "Ġbe",
        "en"
      ],
      [
        "Ġ",
        "if"
      ],
      [
        "au",
        "se"
      ],
      [
        "Ġy",
        "ear"
      ],
      [
        "Ġan",
        "y"
      ],
      [
        "ra",
        "ct"
      ],
      [
        "re",
        "d"
      ],
      [
        "l",
        "ic"
      ],
      [
        "Ġp",
        "r"
[...]
